{
  "version": "1.0",
  "truncation": null,
  "padding": null,
  "added_tokens": [
    {
      "id": 0,
      "content": "<s>",
      "single_word": false,
      "lstrip": false,
      "rstrip": false,
      "normalized": true,
      "special": true
    },
    {
      "id": 1,
      "content": "<pad>",
      "single_word": false,
      "lstrip": false,
      "rstrip": false,
      "normalized": true,
      "special": true
    },
    {
      "id": 3,
      "content": "<unk>",
      "single_word": false,
      "lstrip": false,
      "rstrip": false,
      "normalized": true,
      "special": true
    },
    {
      "id": 4,
      "content": "<mask>",
      "single_word": false,
      "lstrip": true,
      "rstrip": false,
      "normalized": true,
      "special": true
    },
    {
      "id": 6000,
      "content": "</s>",
      "single_word": false,
      "lstrip": false,
      "rstrip": false,
      "normalized": true,
      "special": true
    }
  ],
  "normalizer": null,
  "pre_tokenizer": {
    "type": "ByteLevel",
    "add_prefix_space": false,
    "trim_offsets": true,
    "use_regex": true
  },
  "post_processor": {
    "type": "RobertaProcessing",
    "sep": [
      "</s>",
      6000
    ],
    "cls": [
      "<s>",
      0
    ],
    "trim_offsets": true,
    "add_prefix_space": false
  },
  "decoder": {
    "type": "ByteLevel",
    "add_prefix_space": true,
    "trim_offsets": true,
    "use_regex": true
  },
  "model": {
    "type": "BPE",
    "dropout": null,
    "unk_token": null,
    "continuing_subword_prefix": "",
    "end_of_word_suffix": "",
    "fuse_unk": false,
    "vocab": {
      "<s>": 0,
      "<pad>": 1,
      "<e>": 2,
      "<unk>": 3,
      "<mask>": 4,
      "!": 5,
      "\"": 6,
      "#": 7,
      "$": 8,
      "%": 9,
      "&": 10,
      "'": 11,
      "(": 12,
      ")": 13,
      "*": 14,
      "+": 15,
      ",": 16,
      "-": 17,
      ".": 18,
      "/": 19,
      "0": 20,
      "1": 21,
      "2": 22,
      "3": 23,
      "4": 24,
      "5": 25,
      "6": 26,
      "7": 27,
      "8": 28,
      "9": 29,
      ":": 30,
      ";": 31,
      "<": 32,
      "=": 33,
      ">": 34,
      "?": 35,
      "@": 36,
      "A": 37,
      "B": 38,
      "C": 39,
      "D": 40,
      "E": 41,
      "F": 42,
      "G": 43,
      "H": 44,
      "I": 45,
      "J": 46,
      "K": 47,
      "L": 48,
      "M": 49,
      "N": 50,
      "O": 51,
      "P": 52,
      "Q": 53,
      "R": 54,
      "S": 55,
      "T": 56,
      "U": 57,
      "V": 58,
      "W": 59,
      "X": 60,
      "Y": 61,
      "Z": 62,
      "[": 63,
      "\\": 64,
      "]": 65,
      "^": 66,
      "_": 67,
      "`": 68,
      "a": 69,
      "b": 70,
      "c": 71,
      "d": 72,
      "e": 73,
      "f": 74,
      "g": 75,
      "h": 76,
      "i": 77,
      "j": 78,
      "k": 79,
      "l": 80,
      "m": 81,
      "n": 82,
      "o": 83,
      "p": 84,
      "q": 85,
      "r": 86,
      "s": 87,
      "t": 88,
      "u": 89,
      "v": 90,
      "w": 91,
      "x": 92,
      "y": 93,
      "z": 94,
      "{": 95,
      "|": 96,
      "}": 97,
      "~": 98,
      "¡": 99,
      "¢": 100,
      "£": 101,
      "¤": 102,
      "¥": 103,
      "¦": 104,
      "§": 105,
      "¨": 106,
      "©": 107,
      "ª": 108,
      "«": 109,
      "¬": 110,
      "®": 111,
      "¯": 112,
      "°": 113,
      "±": 114,
      "²": 115,
      "³": 116,
      "´": 117,
      "µ": 118,
      "¶": 119,
      "·": 120,
      "¸": 121,
      "¹": 122,
      "º": 123,
      "»": 124,
      "¼": 125,
      "½": 126,
      "¾": 127,
      "¿": 128,
      "À": 129,
      "Á": 130,
      "Â": 131,
      "Ã": 132,
      "Ä": 133,
      "Å": 134,
      "Æ": 135,
      "Ç": 136,
      "È": 137,
      "É": 138,
      "Ê": 139,
      "Ë": 140,
      "Ì": 141,
      "Í": 142,
      "Î": 143,
      "Ï": 144,
      "Ð": 145,
      "Ñ": 146,
      "Ò": 147,
      "Ó": 148,
      "Ô": 149,
      "Õ": 150,
      "Ö": 151,
      "×": 152,
      "Ø": 153,
      "Ù": 154,
      "Ú": 155,
      "Û": 156,
      "Ü": 157,
      "Ý": 158,
      "Þ": 159,
      "ß": 160,
      "à": 161,
      "á": 162,
      "â": 163,
      "ã": 164,
      "ä": 165,
      "å": 166,
      "æ": 167,
      "ç": 168,
      "è": 169,
      "é": 170,
      "ê": 171,
      "ë": 172,
      "ì": 173,
      "í": 174,
      "î": 175,
      "ï": 176,
      "ð": 177,
      "ñ": 178,
      "ò": 179,
      "ó": 180,
      "ô": 181,
      "õ": 182,
      "ö": 183,
      "÷": 184,
      "ø": 185,
      "ù": 186,
      "ú": 187,
      "û": 188,
      "ü": 189,
      "ý": 190,
      "þ": 191,
      "ÿ": 192,
      "Ā": 193,
      "ā": 194,
      "Ă": 195,
      "ă": 196,
      "Ą": 197,
      "ą": 198,
      "Ć": 199,
      "ć": 200,
      "Ĉ": 201,
      "ĉ": 202,
      "Ċ": 203,
      "ċ": 204,
      "Č": 205,
      "č": 206,
      "Ď": 207,
      "ď": 208,
      "Đ": 209,
      "đ": 210,
      "Ē": 211,
      "ē": 212,
      "Ĕ": 213,
      "ĕ": 214,
      "Ė": 215,
      "ė": 216,
      "Ę": 217,
      "ę": 218,
      "Ě": 219,
      "ě": 220,
      "Ĝ": 221,
      "ĝ": 222,
      "Ğ": 223,
      "ğ": 224,
      "Ġ": 225,
      "ġ": 226,
      "Ģ": 227,
      "ģ": 228,
      "Ĥ": 229,
      "ĥ": 230,
      "Ħ": 231,
      "ħ": 232,
      "Ĩ": 233,
      "ĩ": 234,
      "Ī": 235,
      "ī": 236,
      "Ĭ": 237,
      "ĭ": 238,
      "Į": 239,
      "į": 240,
      "İ": 241,
      "ı": 242,
      "Ĳ": 243,
      "ĳ": 244,
      "Ĵ": 245,
      "ĵ": 246,
      "Ķ": 247,
      "ķ": 248,
      "ĸ": 249,
      "Ĺ": 250,
      "ĺ": 251,
      "Ļ": 252,
      "ļ": 253,
      "Ľ": 254,
      "ľ": 255,
      "Ŀ": 256,
      "ŀ": 257,
      "Ł": 258,
      "ł": 259,
      "Ń": 260,
      "Ġa": 261,
      "Ġt": 262,
      "in": 263,
      "he": 264,
      "ra": 265,
      "on": 266,
      "Ġs": 267,
      "te": 268,
      "Ġthe": 269,
      "Ġc": 270,
      "al": 271,
      "Ġo": 272,
      "re": 273,
      "ti": 274,
      "en": 275,
      "Ġp": 276,
      "Ġof": 277,
      "ro": 278,
      "Ġl": 279,
      "ri": 280,
      "Ġm": 281,
      "ing": 282,
      "Ġin": 283,
      "Ġw": 284,
      "Ġan": 285,
      "ho": 286,
      "Ġd": 287,
      "ar": 288,
      "an": 289,
      "st": 290,
      "or": 291,
      "it": 292,
      "Ġf": 293,
      "ed": 294,
      "Ġb": 295,
      "om": 296,
      "is": 297,
      "er": 298,
      "ic": 299,
      "as": 300,
      "tion": 301,
      "es": 302,
      "Ġsho": 303,
      "Ġshow": 304,
      "Ġand": 305,
      "ph": 306,
      "ul": 307,
      "us": 308,
      "Ġar": 309,
      "ent": 310,
      "gra": 311,
      "le": 312,
      "Ġre": 313,
      "Ġwit": 314,
      "ag": 315,
      "Ġwith": 316,
      "ve": 317,
      "ogra": 318,
      "ter": 319,
      "ted": 320,
      "gh": 321,
      "Ġi": 322,
      "Ġn": 323,
      "Ġv": 324,
      "row": 325,
      "Ġe": 326,
      "la": 327,
      "ograph": 328,
      "id": 329,
      "Ġarrow": 330,
      "ral": 331,
      "Ġle": 332,
      "um": 333,
      "Ġshowing": 334,
      "ion": 335,
      "ft": 336,
      "di": 337,
      "ol": 338,
      "tra": 339,
      "at": 340,
      "ce": 341,
      "os": 342,
      "ct": 343,
      "tic": 344,
      "ght": 345,
      "Ġim": 346,
      "un": 347,
      "Ġri": 348,
      "Ġde": 349,
      "Ġh": 350,
      "pe": 351,
      "ation": 352,
      "Ġleft": 353,
      "Ġright": 354,
      "Ġimag": 355,
      "Ġth": 356,
      "Ġto": 357,
      "el": 358,
      "teri": 359,
      "ur": 360,
      "Ġcom": 361,
      "Ġcon": 362,
      "ten": 363,
      "Ġct": 364,
      "Ġse": 365,
      "ography": 366,
      "Ġsc": 367,
      "Ġra": 368,
      "ow": 369,
      "Ġcomp": 370,
      "ure": 371,
      "Ġdi": 372,
      "Ġpa": 373,
      "Ġat": 374,
      "Ġg": 375,
      "xi": 376,
      "Ġab": 377,
      "ment": 378,
      "Ġradi": 379,
      "Ġhe": 380,
      "mon": 381,
      "Ġis": 382,
      "Ġimage": 383,
      "ac": 384,
      "ly": 385,
      "th": 386,
      "Ġno": 387,
      "Ġsu": 388,
      "ad": 389,
      "mal": 390,
      "ction": 391,
      "se": 392,
      "Ġscan": 393,
      "ary": 394,
      "terior": 395,
      "il": 396,
      "oc": 397,
      "inal": 398,
      "Ġon": 399,
      "Ġen": 400,
      "ass": 401,
      "et": 402,
      "Ġcor": 403,
      "ran": 404,
      "rom": 405,
      "ular": 406,
      "tive": 407,
      "Ġshows": 408,
      "op": 409,
      "Ġtom": 410,
      "ne": 411,
      "Ġex": 412,
      "anc": 413,
      "ig": 414,
      "teral": 415,
      "ous": 416,
      "res": 417,
      "Ġas": 418,
      "Ġ1": 419,
      "ie": 420,
      "Ġtomography": 421,
      "Ġmass": 422,
      "Ġcompu": 423,
      "Ġradiograph": 424,
      "dom": 425,
      "und": 426,
      "ys": 427,
      "stra": 428,
      "ver": 429,
      "ir": 430,
      "ine": 431,
      "ric": 432,
      "am": 433,
      "ia": 434,
      "Ġ2": 435,
      "Ġsp": 436,
      "Ġche": 437,
      "Ġpo": 438,
      "Ġaxi": 439,
      "Ġcomputed": 440,
      "tal": 441,
      "Ġles": 442,
      "Ġpro": 443,
      "up": 444,
      "Ġabdom": 445,
      "iew": 446,
      "nal": 447,
      "Ġaf": 448,
      "ch": 449,
      "ge": 450,
      "Ġhy": 451,
      "Ġview": 452,
      "Ġaxial": 453,
      "Ġwas": 454,
      "Ġla": 455,
      "Ġchest": 456,
      "monstra": 457,
      "Ġlesion": 458,
      "Ġdemonstra": 459,
      "Ġafter": 460,
      "ity": 461,
      "ta": 462,
      "Ġcontra": 463,
      "Ġwh": 464,
      "od": 465,
      "ue": 466,
      "ye": 467,
      "ite": 468,
      "ut": 469,
      "Ġare": 470,
      "Ġpos": 471,
      "tery": 472,
      "ting": 473,
      "em": 474,
      "one": 475,
      "Ġca": 476,
      "per": 477,
      "Ġartery": 478,
      "Ġst": 479,
      "ical": 480,
      "Ġres": 481,
      "all": 482,
      "Ġfrom": 483,
      "Ġpati": 484,
      "ope": 485,
      "sion": 486,
      "Ġpatient": 487,
      "ance": 488,
      "igh": 489,
      "Ġcoron": 490,
      "Ġx": 491,
      "lu": 492,
      "rative": 493,
      "ld": 494,
      "we": 495,
      "fe": 496,
      "Ġap": 497,
      "Ġmri": 498,
      "Ġang": 499,
      "operative": 500,
      "low": 501,
      "Ġdis": 502,
      "Ġarrows": 503,
      "Ġbi": 504,
      "Ġne": 505,
      "cho": 506,
      "ot": 507,
      "Ġpost": 508,
      "Ġxra": 509,
      "ob": 510,
      "ase": 511,
      "ess": 512,
      "hanc": 513,
      "Ġxray": 514,
      "so": 515,
      "ros": 516,
      "ast": 517,
      "ding": 518,
      "Ġ3": 519,
      "lan": 520,
      "lateral": 521,
      "Ġal": 522,
      "Ġpe": 523,
      "Ġad": 524,
      "Ġsub": 525,
      "Ġpre": 526,
      "li": 527,
      "rac": 528,
      "if": 529,
      "Ġma": 530,
      "Ġtran": 531,
      "ated": 532,
      "Ġcontrast": 533,
      "Ġul": 534,
      "gen": 535,
      "atic": 536,
      "Ġmed": 537,
      "Ġfor": 538,
      "cture": 539,
      "ial": 540,
      "Ġanterior": 541,
      "tes": 542,
      "Ġsig": 543,
      "Ġob": 544,
      "Ġby": 545,
      "ogram": 546,
      "ru": 547,
      "tero": 548,
      "ardi": 549,
      "rior": 550,
      "Ġcol": 551,
      "Ġlow": 552,
      "veal": 553,
      "Ġwhite": 554,
      "ff": 555,
      "ib": 556,
      "Ġj": 557,
      "Ġk": 558,
      "Ġbe": 559,
      "Ġreveal": 560,
      "Ġwe": 561,
      "arge": 562,
      "Ġup": 563,
      "Ġinter": 564,
      "Ġdemonstrating": 565,
      "Ġcoronal": 566,
      "con": 567,
      "ym": 568,
      "Ġpla": 569,
      "aro": 570,
      "hanced": 571,
      "Ġlateral": 572,
      "Ġangi": 573,
      "ck": 574,
      "Ġlob": 575,
      "mo": 576,
      "Ġultra": 577,
      "oma": 578,
      "Ġabdominal": 579,
      "ron": 580,
      "Ġtrans": 581,
      "yearo": 582,
      "yearold": 583,
      "ence": 584,
      "entric": 585,
      "Ġop": 586,
      "Ġli": 587,
      "ell": 588,
      "ighted": 589,
      "to": 590,
      "Ġac": 591,
      "ined": 592,
      "age": 593,
      "qu": 594,
      "iti": 595,
      "Ġme": 596,
      "Ġmag": 597,
      "der": 598,
      "ide": 599,
      "ple": 600,
      "Ġlarge": 601,
      "Ġper": 602,
      "iz": 603,
      "Ġposterior": 604,
      "Ġtum": 605,
      "vel": 606,
      "usion": 607,
      "uc": 608,
      "Ġintra": 609,
      "Ġimaging": 610,
      "Ġmul": 611,
      "ormal": 612,
      "agit": 613,
      "ant": 614,
      "Ġdu": 615,
      "Ġbla": 616,
      "netic": 617,
      "onance": 618,
      "po": 619,
      "Ġwall": 620,
      "Ġperi": 621,
      "agittal": 622,
      "Ġseen": 623,
      "Ġresonance": 624,
      "Ġmagnetic": 625,
      "ung": 626,
      "Ġbilateral": 627,
      "Ġmulti": 628,
      "Ġabdomen": 629,
      "Ġ4": 630,
      "Ġr": 631,
      "Ġdist": 632,
      "Ġexten": 633,
      "ific": 634,
      "ong": 635,
      "Ġch": 636,
      "Ġinf": 637,
      "ick": 638,
      "Ġfra": 639,
      "Ġcal": 640,
      "Ġnod": 641,
      "Ġsur": 642,
      "Ã©": 643,
      "Ġsagittal": 644,
      "Ġmid": 645,
      "Ġecho": 646,
      "ub": 647,
      "ren": 648,
      "osis": 649,
      "ud": 650,
      "iss": 651,
      "Ġpres": 652,
      "Ġlung": 653,
      "Ġpel": 654,
      "eous": 655,
      "sity": 656,
      "Ġflu": 657,
      "Ġreg": 658,
      "ip": 659,
      "Ġpul": 660,
      "orm": 661,
      "Ġventric": 662,
      "Ġthick": 663,
      "Ġpelv": 664,
      "Ġlower": 665,
      "yst": 666,
      "erv": 667,
      "Ġho": 668,
      "Ġve": 669,
      "Ġor": 670,
      "ap": 671,
      "Ġro": 672,
      "int": 673,
      "Ġmon": 674,
      "Ġpostoperative": 675,
      "Ġmeas": 676,
      "ace": 677,
      "Ġaor": 678,
      "Ġinc": 679,
      "Ġhem": 680,
      "mall": 681,
      "Ġlobe": 682,
      "Ġsmall": 683,
      "Ġshowed": 684,
      "âĢ": 685,
      "rain": 686,
      "Ġtho": 687,
      "Ġco": 688,
      "reas": 689,
      "Ġfo": 690,
      "monary": 691,
      "dic": 692,
      "Ġmar": 693,
      "tent": 694,
      "pos": 695,
      "Ġred": 696,
      "weighted": 697,
      "sound": 698,
      "Ġultrasound": 699,
      "Ġ5": 700,
      "Ġbo": 701,
      "Ġfracture": 702,
      "tro": 703,
      "Ġinv": 704,
      "Ġbone": 705,
      "Ġver": 706,
      "Ġlevel": 707,
      "form": 708,
      "Ġpulmonary": 709,
      "cess": 710,
      "Ġthis": 711,
      "ate": 712,
      "ural": 713,
      "Ġtumor": 714,
      "Ġvein": 715,
      "Ġcalc": 716,
      "Ġun": 717,
      "Ġhead": 718,
      "Ġfol": 719,
      "Ġmet": 720,
      "ll": 721,
      "oph": 722,
      "Ġcm": 723,
      "Ġhyper": 724,
      "Ġus": 725,
      "Ġos": 726,
      "Ġfem": 727,
      "Ġregion": 728,
      "Âł": 729,
      "Ġfi": 730,
      "Ġcav": 731,
      "je": 732,
      "Ġupper": 733,
      "ari": 734,
      "ame": 735,
      "Ġman": 736,
      "Ġce": 737,
      "Ġpanc": 738,
      "stru": 739,
      "Ġline": 740,
      "lo": 741,
      "ening": 742,
      "Ġtiss": 743,
      "Ġinto": 744,
      "ich": 745,
      "Ġfollow": 746,
      "oral": 747,
      "Ġthere": 748,
      "Ġwhich": 749,
      "Ġ6": 750,
      "ram": 751,
      "art": 752,
      "Ġsh": 753,
      "Ġthat": 754,
      "Ġcase": 755,
      "Ġarea": 756,
      "ble": 757,
      "Ġcyst": 758,
      "Ġbet": 759,
      "Ġnormal": 760,
      "Ġend": 761,
      "Ġcan": 762,
      "Ġmultiple": 763,
      "teb": 764,
      "red": 765,
      "gment": 766,
      "round": 767,
      "Ġwithin": 768,
      "Ġliver": 769,
      "ive": 770,
      "Ġindic": 771,
      "Ġloc": 772,
      "ween": 773,
      "Ġbetween": 774,
      "cc": 775,
      "Ġit": 776,
      "Ġmonth": 777,
      "Ġso": 778,
      "âĢī": 779,
      "usc": 780,
      "de": 781,
      "Ġven": 782,
      "Ġsin": 783,
      "Ġinfe": 784,
      "ration": 785,
      "Ġdila": 786,
      "Ġcons": 787,
      "ification": 788,
      "Ġside": 789,
      "Ġcontras": 790,
      "rax": 791,
      "ang": 792,
      "uring": 793,
      "Ġsign": 794,
      "cted": 795,
      "Ġmusc": 796,
      "Ġbrain": 797,
      "perior": 798,
      "ill": 799,
      "que": 800,
      "racic": 801,
      "im": 802,
      "ystic": 803,
      "Ġmeasure": 804,
      "Ġlym": 805,
      "Ġtissue": 806,
      "cop": 807,
      "cardi": 808,
      "oid": 809,
      "pla": 810,
      "ition": 811,
      "vi": 812,
      "Ġproxi": 813,
      "dder": 814,
      "Ġmm": 815,
      "year": 816,
      "ugh": 817,
      "Ġem": 818,
      "tenhanced": 819,
      "Ġsinus": 820,
      "head": 821,
      "Ġsuperior": 822,
      "Ġmaxi": 823,
      "Ġpreoperative": 824,
      "Ġarrowhead": 825,
      "Ġfe": 826,
      "Ġdemonstrates": 827,
      "fect": 828,
      "Ġdistal": 829,
      "Ġcontrastenhanced": 830,
      "Ġhigh": 831,
      "pres": 832,
      "Ġfat": 833,
      "Ġblack": 834,
      "eur": 835,
      "omy": 836,
      "Ġsignal": 837,
      "Ġpelvis": 838,
      "Ġlong": 839,
      "ual": 840,
      "Ġocc": 841,
      "ree": 842,
      "Ġproximal": 843,
      "Ġmo": 844,
      "ital": 845,
      "esoph": 846,
      "Ġboth": 847,
      "ak": 848,
      "Ġmonths": 849,
      "Ġair": 850,
      "Ġtw": 851,
      "umb": 852,
      "Ġangiography": 853,
      "Ġverteb": 854,
      "Ġsoft": 855,
      "reat": 856,
      "Ġimp": 857,
      "Ġthro": 858,
      "Ġatri": 859,
      "ach": 860,
      "Ġcoronary": 861,
      "Ġappe": 862,
      "Ġmal": 863,
      "Ġabs": 864,
      "Ġfluid": 865,
      "inten": 866,
      "Ġple": 867,
      "iast": 868,
      "Ġsection": 869,
      "Ġduct": 870,
      "posterior": 871,
      "Ġcar": 872,
      "idne": 873,
      "val": 874,
      "Ġsegment": 875,
      "ffusion": 876,
      "Ġwere": 877,
      "mm": 878,
      "Ġhypo": 879,
      "Ġechocardi": 880,
      "struction": 881,
      "eurys": 882,
      "hout": 883,
      "Ġden": 884,
      "arg": 885,
      "Ġval": 886,
      "Ġnote": 887,
      "Ġinvol": 888,
      "patic": 889,
      "Ġcystic": 890,
      "Ġpor": 891,
      "Ġarteri": 892,
      "Ġkidne": 893,
      "ke": 894,
      "Ġrevealed": 895,
      "fined": 896,
      "Ġnot": 897,
      "Ġfemoral": 898,
      "geneous": 899,
      "Ġplan": 900,
      "asc": 901,
      "Ġvis": 902,
      "Ġsep": 903,
      "Ġventricle": 904,
      "Ġgra": 905,
      "oden": 906,
      "Ġinferior": 907,
      "Ġlymph": 908,
      "Ġantero": 909,
      "Ġnon": 910,
      "ody": 911,
      "Ġalso": 912,
      "les": 913,
      "Ġoste": 914,
      "Ġcomple": 915,
      "Ġapp": 916,
      "eurysm": 917,
      "Ġ7": 918,
      "Ġjo": 919,
      "vid": 920,
      "ced": 921,
      "ied": 922,
      "entral": 923,
      "tical": 924,
      "gin": 925,
      "Ġsubc": 926,
      "Ġcerv": 927,
      "ancement": 928,
      "Ġthrough": 929,
      "Ġspace": 930,
      "ds": 931,
      "yel": 932,
      "Ġtra": 933,
      "Ġpan": 934,
      "Ġpat": 935,
      "Ġfig": 936,
      "ula": 937,
      "Ġrenal": 938,
      "olid": 939,
      "Ġgast": 940,
      "med": 941,
      "jection": 942,
      "Ġpara": 943,
      "Ġmediast": 944,
      "Ġtwo": 945,
      "hancement": 946,
      "Ġed": 947,
      "reb": 948,
      "Ġhetero": 949,
      "Ġte": 950,
      "Ġph": 951,
      "romb": 952,
      "neum": 953,
      "Ġmedial": 954,
      "her": 955,
      "Ġthickening": 956,
      "reased": 957,
      "Ġthromb": 958,
      "Ġwell": 959,
      "Ġwithout": 960,
      "athe": 961,
      "Ġangiogram": 962,
      "cen": 963,
      "ven": 964,
      "Ġretro": 965,
      "Ġeffusion": 966,
      "ating": 967,
      "Ġsup": 968,
      "irc": 969,
      "Ġmark": 970,
      "Ġjoint": 971,
      "fo": 972,
      "tation": 973,
      "Ġpneum": 974,
      "Ġbow": 975,
      "Ġinternal": 976,
      "Ġkidney": 977,
      "Ġbody": 978,
      "Ġenhancement": 979,
      "aran": 980,
      "Ġtub": 981,
      "Ġopac": 982,
      "Ġbl": 983,
      "ission": 984,
      "use": 985,
      "Ġenl": 986,
      "verse": 987,
      "Ġbladder": 988,
      "ab": 989,
      "Ġyear": 990,
      "Ġneck": 991,
      "Ġcereb": 992,
      "Ġanteroposterior": 993,
      "Ġmr": 994,
      "Ġenhanced": 995,
      "ory": 996,
      "pl": 997,
      "Ġmuscle": 998,
      "Ġpano": 999,
      "ma": 1000,
      "tone": 1001,
      "Ġrec": 1002,
      "ross": 1003,
      "Ġbowel": 1004,
      "arance": 1005,
      "ving": 1006,
      "pect": 1007,
      "Ġspine": 1008,
      "Ġcathe": 1009,
      "Ġdiff": 1010,
      "copic": 1011,
      "Ġure": 1012,
      "Ġcl": 1013,
      "tid": 1014,
      "ath": 1015,
      "Ġimages": 1016,
      "Ġaortic": 1017,
      "ameter": 1018,
      "ramic": 1019,
      "cending": 1020,
      "tem": 1021,
      "Ġfron": 1022,
      "rosis": 1023,
      "Ġcervical": 1024,
      "ks": 1025,
      "tis": 1026,
      "Ġins": 1027,
      "Ġda": 1028,
      "Ġ20": 1029,
      "Ġaorta": 1030,
      "tained": 1031,
      "cond": 1032,
      "Ġpleural": 1033,
      "cm": 1034,
      "Ġcompres": 1035,
      "Ġdiameter": 1036,
      "Ġcomplete": 1037,
      "phy": 1038,
      "Ġdefect": 1039,
      "Ġposition": 1040,
      "ini": 1041,
      "Ġdes": 1042,
      "ema": 1043,
      "formed": 1044,
      "Ġpanoramic": 1045,
      "lic": 1046,
      "Ġty": 1047,
      "aneous": 1048,
      "ographic": 1049,
      "Ġtransverse": 1050,
      "Ġsurg": 1051,
      "Ġmes": 1052,
      "Ġsecond": 1053,
      "Ġcalcification": 1054,
      "reatment": 1055,
      "ution": 1056,
      "Ġu": 1057,
      "Ġshown": 1058,
      "Ġir": 1059,
      "Ġthoracic": 1060,
      "sal": 1061,
      "sive": 1062,
      "Ġiniti": 1063,
      "Ġass": 1064,
      "llary": 1065,
      "Ġatrium": 1066,
      "len": 1067,
      "Ġori": 1068,
      "tial": 1069,
      "and": 1070,
      "Ġlesions": 1071,
      "ized": 1072,
      "Ġpancre": 1073,
      "ume": 1074,
      "Ġperformed": 1075,
      "son": 1076,
      "xis": 1077,
      "Ġund": 1078,
      "Ġinten": 1079,
      "Ġflow": 1080,
      "Ġdep": 1081,
      "Ġextra": 1082,
      "sc": 1083,
      "Ġconf": 1084,
      "Ġhepatic": 1085,
      "Ġangle": 1086,
      "Ġpresent": 1087,
      "og": 1088,
      "rotid": 1089,
      "Ġexam": 1090,
      "Ġnodul": 1091,
      "Ġcatheter": 1092,
      "den": 1093,
      "gular": 1094,
      "Ġtrac": 1095,
      "Ġpart": 1096,
      "ull": 1097,
      "ternal": 1098,
      "olar": 1099,
      "Ġhip": 1100,
      "choic": 1101,
      "Ġplain": 1102,
      "Ġmetast": 1103,
      "ps": 1104,
      "Ġaneurysm": 1105,
      "tern": 1106,
      "dle": 1107,
      "tho": 1108,
      "Ġlo": 1109,
      "ome": 1110,
      "ign": 1111,
      "hancing": 1112,
      "ities": 1113,
      "Ġfollowup": 1114,
      "Ġinitial": 1115,
      "asis": 1116,
      "Ġincreased": 1117,
      "Ġunder": 1118,
      "Ġfoc": 1119,
      "Ġshor": 1120,
      "ose": 1121,
      "Ġradiol": 1122,
      "Ġsug": 1123,
      "Ġmandi": 1124,
      "vic": 1125,
      "Ġz": 1126,
      "Ġsac": 1127,
      "Ġcirc": 1128,
      "Ġep": 1129,
      "oss": 1130,
      "Ġ10": 1131,
      "Ġareas": 1132,
      "Ġappearance": 1133,
      "ute": 1134,
      "Ġdensity": 1135,
      "Ġheterogeneous": 1136,
      "ved": 1137,
      "ination": 1138,
      "Ġout": 1139,
      "Ġfir": 1140,
      "Ġhyp": 1141,
      "Ġstru": 1142,
      "Ġrevealing": 1143,
      "ageal": 1144,
      "loc": 1145,
      "Ġcho": 1146,
      "Ġcentral": 1147,
      "Ġevid": 1148,
      "iltra": 1149,
      "Ġinfiltra": 1150,
      "Ġmiddle": 1151,
      "esophageal": 1152,
      "Ġfirst": 1153,
      "bular": 1154,
      "mission": 1155,
      "normal": 1156,
      "pa": 1157,
      "ture": 1158,
      "istent": 1159,
      "Ġreveals": 1160,
      "Ġfluo": 1161,
      "Ġplane": 1162,
      "Ġfrontal": 1163,
      "Ġstructure": 1164,
      "ca": 1165,
      "Ġcommon": 1166,
      "Ġseve": 1167,
      "section": 1168,
      "Ġdilated": 1169,
      "Ġfigure": 1170,
      "Ġmarked": 1171,
      "Ġenlarg": 1172,
      "hes": 1173,
      "Ġbron": 1174,
      "Ġabnormal": 1175,
      "Ġpoint": 1176,
      "Ġcolon": 1177,
      "Ġcavity": 1178,
      "intense": 1179,
      "Ġenlarged": 1180,
      "ctive": 1181,
      "Ġrecon": 1182,
      "Ġone": 1183,
      "ops": 1184,
      "Ġpancreas": 1185,
      "Ġvalve": 1186,
      "toneal": 1187,
      "Ġpancreatic": 1188,
      "cin": 1189,
      "roid": 1190,
      "Ġrect": 1191,
      "cement": 1192,
      "Ġgre": 1193,
      "ild": 1194,
      "ysis": 1195,
      "lde": 1196,
      "Ġadj": 1197,
      "ible": 1198,
      "Ġdiffuse": 1199,
      "Ġduring": 1200,
      "ldefined": 1201,
      "ber": 1202,
      "Ġyel": 1203,
      "Ġsten": 1204,
      "erve": 1205,
      "ulated": 1206,
      "teris": 1207,
      "Ġdispla": 1208,
      "essel": 1209,
      "genic": 1210,
      "contra": 1211,
      "Ġroot": 1212,
      "Ġyellow": 1213,
      "ded": 1214,
      "Ġpar": 1215,
      "Ġfib": 1216,
      "asal": 1217,
      "Ġili": 1218,
      "iated": 1219,
      "itis": 1220,
      "Ġvertebral": 1221,
      "ist": 1222,
      "rn": 1223,
      "ind": 1224,
      "Ġcarotid": 1225,
      "Ġform": 1226,
      "anges": 1227,
      "horax": 1228,
      "Ġrepres": 1229,
      "Ġnerve": 1230,
      "Ġvessel": 1231,
      "Ġultrason": 1232,
      "Ġvena": 1233,
      "Ġmeasurement": 1234,
      "Ġimplan": 1235,
      "ail": 1236,
      "ges": 1237,
      "line": 1238,
      "Ġtreatment": 1239,
      "rap": 1240,
      "Ġusing": 1241,
      "Ġinvolving": 1242,
      "ascular": 1243,
      "Ġsame": 1244,
      "Ġcle": 1245,
      "utaneous": 1246,
      "yn": 1247,
      "Ġ9": 1248,
      "Ġtib": 1249,
      "Ġfill": 1250,
      "Ġbran": 1251,
      "Ġmain": 1252,
      "Ġpelvic": 1253,
      "Ġcava": 1254,
      "tif": 1255,
      "end": 1256,
      "Ġdue": 1257,
      "Ġbre": 1258,
      "phal": 1259,
      "agn": 1260,
      "male": 1261,
      "Ġmaxillary": 1262,
      "Ġfemale": 1263,
      "pan": 1264,
      "ond": 1265,
      "Ġcardi": 1266,
      "Ġalong": 1267,
      "Ġventricular": 1268,
      "Ġfist": 1269,
      "Ġmediastinal": 1270,
      "Ġirre": 1271,
      "ates": 1272,
      "ts": 1273,
      "Ġqu": 1274,
      "Ġstent": 1275,
      "ris": 1276,
      "ery": 1277,
      "atoma": 1278,
      "peri": 1279,
      "teric": 1280,
      "Ġaspect": 1281,
      "Ġcolle": 1282,
      "ize": 1283,
      "Ġconsistent": 1284,
      "ep": 1285,
      "Ġinte": 1286,
      "Ġfin": 1287,
      "Ġedema": 1288,
      "Ġassoc": 1289,
      "contrast": 1290,
      "acent": 1291,
      "Ġsurround": 1292,
      "Ġcanal": 1293,
      "ided": 1294,
      "tran": 1295,
      "Ġobtained": 1296,
      "Ġextending": 1297,
      "Ġfollowing": 1298,
      "Ġsignific": 1299,
      "umbar": 1300,
      "Ġyears": 1301,
      "Ġadjacent": 1302,
      "Ġrepresent": 1303,
      "ight": 1304,
      "uation": 1305,
      "Ġcross": 1306,
      "Ġenhancing": 1307,
      "Ġobs": 1308,
      "ization": 1309,
      "Ġperip": 1310,
      "Ġmale": 1311,
      "Ġintensity": 1312,
      "Ġshort": 1313,
      "Ġsignificant": 1314,
      "hed": 1315,
      "Ġdise": 1316,
      "Ġwee": 1317,
      "Ġacute": 1318,
      "Ġabscess": 1319,
      "gm": 1320,
      "ix": 1321,
      "Ġ8": 1322,
      "Ġtem": 1323,
      "umen": 1324,
      "olution": 1325,
      "Ġthin": 1326,
      "Ġchanges": 1327,
      "Ġfour": 1328,
      "Ġechocardiography": 1329,
      "Ġgastric": 1330,
      "Ġtak": 1331,
      "ard": 1332,
      "Ġvol": 1333,
      "Ġ12": 1334,
      "Ġweighted": 1335,
      "erved": 1336,
      "Ġmeasuring": 1337,
      "Ġthorax": 1338,
      "cy": 1339,
      "com": 1340,
      "tin": 1341,
      "vement": 1342,
      "unt": 1343,
      "Ġkne": 1344,
      "Ġfinding": 1345,
      "bol": 1346,
      "echoic": 1347,
      "Ġcur": 1348,
      "Ġpse": 1349,
      "rib": 1350,
      "Ġspinal": 1351,
      "Ġprocess": 1352,
      "Ġhyd": 1353,
      "Ġsurgery": 1354,
      "Ġdisease": 1355,
      "pon": 1356,
      "Ġdo": 1357,
      "Ġstom": 1358,
      "Ġcollection": 1359,
      "aph": 1360,
      "ile": 1361,
      "our": 1362,
      "Ġover": 1363,
      "Ġwel": 1364,
      "Ġdiagn": 1365,
      "Ġhern": 1366,
      "Ġju": 1367,
      "Ġits": 1368,
      "Ġconfir": 1369,
      "Ġbronch": 1370,
      "Ġassociated": 1371,
      "Ġaxis": 1372,
      "ines": 1373,
      "Ġcell": 1374,
      "Ġextensive": 1375,
      "Ġpresence": 1376,
      "cinoma": 1377,
      "rapy": 1378,
      "Ġstomach": 1379,
      "Ġsize": 1380,
      "arrow": 1381,
      "Ġiv": 1382,
      "unction": 1383,
      "Ġhas": 1384,
      "Ġsequ": 1385,
      "Ġdisc": 1386,
      "Ġadmission": 1387,
      "rench": 1388,
      "Ġsevere": 1389,
      "Ġbreast": 1390,
      "sp": 1391,
      "Ġsite": 1392,
      "renal": 1393,
      "Ġfla": 1394,
      "Ġ15": 1395,
      "Ġperic": 1396,
      "Ġobserved": 1397,
      "Ġknee": 1398,
      "ty": 1399,
      "rate": 1400,
      "Ġha": 1401,
      "amber": 1402,
      "Ġsplen": 1403,
      "Ġindicates": 1404,
      "Ġphase": 1405,
      "Ġreconstruction": 1406,
      "Ġiliac": 1407,
      "Ġtaken": 1408,
      "oth": 1409,
      "Ġnarrow": 1410,
      "ardial": 1411,
      "Ġhematoma": 1412,
      "Ġstenosis": 1413,
      "Ġpseud": 1414,
      "ire": 1415,
      "las": 1416,
      "ness": 1417,
      "Ġdor": 1418,
      "oman": 1419,
      "Ġoccl": 1420,
      "inum": 1421,
      "Ġsolid": 1422,
      "rect": 1423,
      "Ġinjection": 1424,
      "Ġdop": 1425,
      "ulation": 1426,
      "iate": 1427,
      "feren": 1428,
      "Ġvenous": 1429,
      "Ġarrowheads": 1430,
      "pler": 1431,
      "Ġtempo": 1432,
      "ying": 1433,
      "zed": 1434,
      "Ġaround": 1435,
      "Ġwoman": 1436,
      "lation": 1437,
      "Ġscre": 1438,
      "Ġglan": 1439,
      "Ġcord": 1440,
      "Ġdemonstrated": 1441,
      "Ġirregular": 1442,
      "ented": 1443,
      "Ġmild": 1444,
      "Ġparench": 1445,
      "venous": 1446,
      "Ġorigin": 1447,
      "Ġclear": 1448,
      "cal": 1449,
      "io": 1450,
      "ragm": 1451,
      "Ġpet": 1452,
      "Ġlen": 1453,
      "Ġlig": 1454,
      "Ġradiography": 1455,
      "Ġmeasured": 1456,
      "Ġvertebra": 1457,
      "Ġtube": 1458,
      "Ġexamination": 1459,
      "Ġdoppler": 1460,
      "face": 1461,
      "ther": 1462,
      "Ġtr": 1463,
      "rach": 1464,
      "Ġsw": 1465,
      "Ġwho": 1466,
      "Ġ18": 1467,
      "Ġtrache": 1468,
      "Ġevidence": 1469,
      "Ġfluoros": 1470,
      "rat": 1471,
      "enteric": 1472,
      "Ġmic": 1473,
      "Ġil": 1474,
      "Ġrib": 1475,
      "etal": 1476,
      "Ġhomo": 1477,
      "lood": 1478,
      "Ġlocated": 1479,
      "Ġvisible": 1480,
      "Ġtype": 1481,
      "Ġsugges": 1482,
      "Ġweeks": 1483,
      "hen": 1484,
      "Ġbon": 1485,
      "Ġblood": 1486,
      "aryn": 1487,
      "opath": 1488,
      "Ġapical": 1489,
      "moid": 1490,
      "Ġdilatation": 1491,
      "Ġconsolid": 1492,
      "Ġday": 1493,
      "Ġformation": 1494,
      "Ġfistula": 1495,
      "peritoneal": 1496,
      "ament": 1497,
      "ative": 1498,
      "ium": 1499,
      "sed": 1500,
      "ension": 1501,
      "Ġlumbar": 1502,
      "Ġmod": 1503,
      "Ġfree": 1504,
      "Ġasteris": 1505,
      "Ġmargin": 1506,
      "Ġfemur": 1507,
      "mediate": 1508,
      "Ġdescending": 1509,
      "Ġradioluc": 1510,
      "Ġwelldefined": 1511,
      "Ġsequence": 1512,
      "Ġligament": 1513,
      "yroid": 1514,
      "Ġcaus": 1515,
      "Ġpatients": 1516,
      "ified": 1517,
      "Ġextension": 1518,
      "Ġthrombus": 1519,
      "fore": 1520,
      "Ġinser": 1521,
      "Ġcompression": 1522,
      "Ġsuggestive": 1523,
      "Ġcran": 1524,
      "ene": 1525,
      "osed": 1526,
      "Ġthir": 1527,
      "Ġgas": 1528,
      "ack": 1529,
      "ili": 1530,
      "ilar": 1531,
      "Ġcortical": 1532,
      "Ġduoden": 1533,
      "Ġfix": 1534,
      "log": 1535,
      "vious": 1536,
      "Ġembol": 1537,
      "Ġblue": 1538,
      "Ġsurrounding": 1539,
      "00": 1540,
      "Ġsk": 1541,
      "ature": 1542,
      "Ġstud": 1543,
      "Ġnode": 1544,
      "Ġvisual": 1545,
      "Ġappro": 1546,
      "Ġcerebral": 1547,
      "be": 1548,
      "ytic": 1549,
      "Ġslic": 1550,
      "Ġlumen": 1551,
      "Ġgall": 1552,
      "Ġabo": 1553,
      "Ġresolution": 1554,
      "Ġobli": 1555,
      "Ġinfla": 1556,
      "Ġorb": 1557,
      "Ġortho": 1558,
      "Ġhyperintense": 1559,
      "Ġpattern": 1560,
      "Ġgland": 1561,
      "dg": 1562,
      "pho": 1563,
      "tum": 1564,
      "Ġesoph": 1565,
      "Ġlv": 1566,
      "Ġshoul": 1567,
      "usp": 1568,
      "take": 1569,
      "Ġbile": 1570,
      "Ġendos": 1571,
      "Ġhypoechoic": 1572,
      "Ġuter": 1573,
      "Ġdepic": 1574,
      "Ġfocal": 1575,
      "Ġhypoden": 1576,
      "ry": 1577,
      "Ġtip": 1578,
      "orr": 1579,
      "Ġarch": 1580,
      "Ġdiaph": 1581,
      "adow": 1582,
      "Ġprost": 1583,
      "Ġbefore": 1584,
      "Ġtumour": 1585,
      "Ġnodes": 1586,
      "Ġpartial": 1587,
      "Ġultrasonography": 1588,
      "Ġconsolidation": 1589,
      "uction": 1590,
      "Ġson": 1591,
      "til": 1592,
      "Ġthree": 1593,
      "Ġnoted": 1594,
      "Ġhype": 1595,
      "Ġportal": 1596,
      "Ġfilling": 1597,
      "Ġscrew": 1598,
      "Ġstudy": 1599,
      "fle": 1600,
      "yl": 1601,
      "Ġwid": 1602,
      "horacic": 1603,
      "Ġdrain": 1604,
      "Ġbut": 1605,
      "ulari": 1606,
      "ticular": 1607,
      "rant": 1608,
      "Ġnear": 1609,
      "Ġuptake": 1610,
      "Ġsurface": 1611,
      "Ġshadow": 1612,
      "Ġportion": 1613,
      "Ġsubcutaneous": 1614,
      "Ġtract": 1615,
      "indow": 1616,
      "Ġvolume": 1617,
      "ati": 1618,
      "pi": 1619,
      "yer": 1620,
      "ining": 1621,
      "Ġwindow": 1622,
      "order": 1623,
      "ult": 1624,
      "Ġascending": 1625,
      "Ġprojection": 1626,
      "Ġzone": 1627,
      "Ġdorsal": 1628,
      "Ġocclusion": 1629,
      "Ġthird": 1630,
      "Ġoblique": 1631,
      "gth": 1632,
      "Ġthyroid": 1633,
      "Ġconta": 1634,
      "Ġgl": 1635,
      "Ġexternal": 1636,
      "ystem": 1637,
      "Ġneed": 1638,
      "Ġplate": 1639,
      "Ġmesenteric": 1640,
      "Ġnodule": 1641,
      "Ġsplenic": 1642,
      "act": 1643,
      "ning": 1644,
      "erc": 1645,
      "grade": 1646,
      "Ġiden": 1647,
      "ely": 1648,
      "apical": 1649,
      "Ġvessels": 1650,
      "Ġcardiac": 1651,
      "Ġquad": 1652,
      "Ġtemporal": 1653,
      "opathy": 1654,
      "Ġesophag": 1655,
      "able": 1656,
      "me": 1657,
      "Ġtotal": 1658,
      "Ġatten": 1659,
      "Ġcorres": 1660,
      "Ġradiographic": 1661,
      "Ġ25": 1662,
      "othorax": 1663,
      "Ġplaced": 1664,
      "Ġechocardiogram": 1665,
      "Ġarteries": 1666,
      "Ġureth": 1667,
      "Ġbranch": 1668,
      "wa": 1669,
      "Ġsing": 1670,
      "Ġii": 1671,
      "lavic": 1672,
      "Ġhad": 1673,
      "Ġscle": 1674,
      "Ġtranst": 1675,
      "genous": 1676,
      "Ġjunction": 1677,
      "Ġrv": 1678,
      "Ġabsence": 1679,
      "Ġcarcinoma": 1680,
      "Ġmandibular": 1681,
      "Ġstructures": 1682,
      "orrh": 1683,
      "cent": 1684,
      "lla": 1685,
      "met": 1686,
      "pical": 1687,
      "Ġag": 1688,
      "Ġtim": 1689,
      "Ġtend": 1690,
      "Ġmat": 1691,
      "Ġinj": 1692,
      "itud": 1693,
      "Ġborder": 1694,
      "Ġremo": 1695,
      "Ġdefined": 1696,
      "Ġheart": 1697,
      "uced": 1698,
      "rent": 1699,
      "vian": 1700,
      "Ġlongitud": 1701,
      "Ġorthop": 1702,
      "Ġlongitudinal": 1703,
      "ost": 1704,
      "Ġsyn": 1705,
      "Ġsystem": 1706,
      "Ġov": 1707,
      "ency": 1708,
      "rotic": 1709,
      "Ġret": 1710,
      "olini": 1711,
      "adolini": 1712,
      "Ġcolor": 1713,
      "Ġperiapical": 1714,
      "Ġdistance": 1715,
      "Ġmidline": 1716,
      "Ġused": 1717,
      "Ġlocal": 1718,
      "Ġlocation": 1719,
      "Ġarterial": 1720,
      "Ġnodules": 1721,
      "Ġmetastasis": 1722,
      "Ġslice": 1723,
      "Ġtransthoracic": 1724,
      "bla": 1725,
      "pt": 1726,
      "vascular": 1727,
      "rated": 1728,
      "ars": 1729,
      "Ġfil": 1730,
      "Ġlead": 1731,
      "olic": 1732,
      "Ġcontro": 1733,
      "aden": 1734,
      "Ġinfar": 1735,
      "Ġechogenic": 1736,
      "Ġreduction": 1737,
      "Ġlinear": 1738,
      "Ġparas": 1739,
      "Ġmandible": 1740,
      "Ġlength": 1741,
      "Ġbony": 1742,
      "Ġshoulder": 1743,
      "Ġcorrespon": 1744,
      "ater": 1745,
      "gi": 1746,
      "ption": 1747,
      "Ġsym": 1748,
      "aly": 1749,
      "Ġmy": 1750,
      "Ġmin": 1751,
      "terized": 1752,
      "geal": 1753,
      "Ġgraft": 1754,
      "Ġgastro": 1755,
      "Ġmediastinum": 1756,
      "Ġtee": 1757,
      "Ġparenchym": 1758,
      "Ġmicro": 1759,
      "Ġdiaphragm": 1760,
      "Ġidentif": 1761,
      "Ġorthopant": 1762,
      "che": 1763,
      "ian": 1764,
      "ique": 1765,
      "ms": 1766,
      "sided": 1767,
      "Ġ0": 1768,
      "here": 1769,
      "Ġsta": 1770,
      "Ġcen": 1771,
      "Ġold": 1772,
      "Ġloss": 1773,
      "itu": 1774,
      "Ġele": 1775,
      "lated": 1776,
      "Ġlayer": 1777,
      "Ġbiops": 1778,
      "Ġthickness": 1779,
      "tinu": 1780,
      "Ġfindings": 1781,
      "Ġendoscopic": 1782,
      "Ġhypodense": 1783,
      "Ġsingle": 1784,
      "erate": 1785,
      "mum": 1786,
      "Ġtri": 1787,
      "ened": 1788,
      "Ġdec": 1789,
      "Ġhist": 1790,
      "Ġthan": 1791,
      "urs": 1792,
      "Ġpostero": 1793,
      "Ġdisloc": 1794,
      "Ġnec": 1795,
      "Ġneu": 1796,
      "uble": 1797,
      "Ġround": 1798,
      "intensity": 1799,
      "Ġcartil": 1800,
      "Ġinvolvement": 1801,
      "Ġ201": 1802,
      "Ġcholan": 1803,
      "Ġasterisk": 1804,
      "flu": 1805,
      "gl": 1806,
      "plan": 1807,
      "ves": 1808,
      "yg": 1809,
      "Ã¨": 1810,
      "hepatic": 1811,
      "onent": 1812,
      "ontal": 1813,
      "holog": 1814,
      "Ġball": 1815,
      "leen": 1816,
      "Ġtooth": 1817,
      "Ġcomm": 1818,
      "Ġcond": 1819,
      "Ġcomponent": 1820,
      "Ġheal": 1821,
      "ock": 1822,
      "Ġspleen": 1823,
      "Ġcaud": 1824,
      "Ġall": 1825,
      "aped": 1826,
      "Ġhemorrh": 1827,
      "Ġinvas": 1828,
      "viation": 1829,
      "physe": 1830,
      "Ġinfiltration": 1831,
      "Ġpericardial": 1832,
      "Ġinflamm": 1833,
      "Ġcontrol": 1834,
      "ward": 1835,
      "Ġam": 1836,
      "Ġav": 1837,
      "heral": 1838,
      "riz": 1839,
      "sting": 1840,
      "Ġbul": 1841,
      "Ġeye": 1842,
      "Ġimmediate": 1843,
      "Ġresid": 1844,
      "light": 1845,
      "Ġplacement": 1846,
      "Ġoptic": 1847,
      "rence": 1848,
      "Ġfore": 1849,
      "Ġfiel": 1850,
      "Ġmaximum": 1851,
      "Ġseptum": 1852,
      "Ġrecur": 1853,
      "Ġdouble": 1854,
      "Ġpseudo": 1855,
      "Ġfluoroscopic": 1856,
      "Ġneedle": 1857,
      "Ġtendon": 1858,
      "ared": 1859,
      "Ġsim": 1860,
      "Ġope": 1861,
      "Ġfoss": 1862,
      "Ġbase": 1863,
      "cting": 1864,
      "Ġ13": 1865,
      "very": 1866,
      "Ġprot": 1867,
      "chan": 1868,
      "Ġaden": 1869,
      "Ġobstruction": 1870,
      "Ġtransesophageal": 1871,
      "ellar": 1872,
      "Ġintravenous": 1873,
      "copy": 1874,
      "Ġmore": 1875,
      "Ġretroperitoneal": 1876,
      "Ġtypical": 1877,
      "Ġesophagus": 1878,
      "bladder": 1879,
      "Ġparenchyma": 1880,
      "Ġfossa": 1881,
      "fic": 1882,
      "man": 1883,
      "Ġamo": 1884,
      "Ġaris": 1885,
      "Ġsti": 1886,
      "Ġmit": 1887,
      "eding": 1888,
      "Ġarth": 1889,
      "Ġile": 1890,
      "Ġpain": 1891,
      "ancer": 1892,
      "Ġcomputerized": 1893,
      "Ġperfo": 1894,
      "Ġsubcla": 1895,
      "Ġopacity": 1896,
      "Ġloops": 1897,
      "Ġcircum": 1898,
      "Ġbiopsy": 1899,
      "Ġcholangi": 1900,
      "Ġresidual": 1901,
      "gital": 1902,
      "rim": 1903,
      "Ġmem": 1904,
      "arc": 1905,
      "tional": 1906,
      "ury": 1907,
      "Ġsele": 1908,
      "Ġgadolini": 1909,
      "opa": 1910,
      "Ġexpan": 1911,
      "Ġprevious": 1912,
      "Ġnodular": 1913,
      "âĢĬ": 1914,
      "Ġindicated": 1915,
      "Ġindicating": 1916,
      "Ġsupra": 1917,
      "Ġopacities": 1918,
      "trant": 1919,
      "Ġperipheral": 1920,
      "Ġnarrowing": 1921,
      "iliary": 1922,
      "Ġgallbladder": 1923,
      "Ġhypere": 1924,
      "Ġcorresponding": 1925,
      "Ġsubclavian": 1926,
      "du": 1927,
      "king": 1928,
      "sing": 1929,
      "ventric": 1930,
      "Ġur": 1931,
      "Ġtail": 1932,
      "ina": 1933,
      "Ġcancer": 1934,
      "Ġlines": 1935,
      "Ġmuc": 1936,
      "Ġmolar": 1937,
      "Ġint": 1938,
      "Ġef": 1939,
      "ctomy": 1940,
      "terial": 1941,
      "month": 1942,
      "Ġstri": 1943,
      "Ġadrenal": 1944,
      "Ġlobes": 1945,
      "Ġopen": 1946,
      "Ġmontrant": 1947,
      "Ġretrograde": 1948,
      "scan": 1949,
      "Ġquadrant": 1950,
      "Ġtime": 1951,
      "rizontal": 1952,
      "vis": 1953,
      "tex": 1954,
      "Ġpol": 1955,
      "Ġinver": 1956,
      "itary": 1957,
      "gram": 1958,
      "cephal": 1959,
      "Ġgro": 1960,
      "Ġheight": 1961,
      "othe": 1962,
      "elling": 1963,
      "Ġhorizontal": 1964,
      "Ġthorac": 1965,
      "Ġforam": 1966,
      "arium": 1967,
      "Ġpneumothorax": 1968,
      "Ġureter": 1969,
      "Ġmoderate": 1970,
      "Ġattenuation": 1971,
      "Ġinjury": 1972,
      "bran": 1973,
      "ches": 1974,
      "fferen": 1975,
      "gres": 1976,
      "ner": 1977,
      "inary": 1978,
      "rest": 1979,
      "rous": 1980,
      "ases": 1981,
      "Ġear": 1982,
      "Ġatt": 1983,
      "Ġtomographic": 1984,
      "Ġ11": 1985,
      "Ġmassive": 1986,
      "Ġdisten": 1987,
      "like": 1988,
      "Ġuln": 1989,
      "Ġincis": 1990,
      "Ġreco": 1991,
      "Ġimplant": 1992,
      "Ġorthopantom": 1993,
      "Ġcartilage": 1994,
      "Ġamount": 1995,
      "mension": 1996,
      "oon": 1997,
      "Ġape": 1998,
      "Ġped": 1999,
      "aneurysm": 2000,
      "Ġble": 2001,
      "ers": 2002,
      "Ġreform": 2003,
      "aginal": 2004,
      "Ġvascular": 2005,
      "Ġet": 2006,
      "Ġeval": 2007,
      "Ġgu": 2008,
      "Ġground": 2009,
      "xim": 2010,
      "ade": 2011,
      "Ġ14": 2012,
      "Ġacc": 2013,
      "velop": 2014,
      "Ġmuscles": 2015,
      "Ġatrial": 2016,
      "Ġlymphaden": 2017,
      "Ġpresentation": 2018,
      "ullary": 2019,
      "Ġgreen": 2020,
      "Ġtibial": 2021,
      "Ġpetct": 2022,
      "Ġcenter": 2023,
      "Ġballoon": 2024,
      "ventricular": 2025,
      "rum": 2026,
      "vas": 2027,
      "yed": 2028,
      "ont": 2029,
      "Ġpho": 2030,
      "rial": 2031,
      "right": 2032,
      "anterior": 2033,
      "erm": 2034,
      "Ġnasal": 2035,
      "Ġgi": 2036,
      "Ġgo": 2037,
      "oplas": 2038,
      "Ġpostcontrast": 2039,
      "Ġintraoperative": 2040,
      "Ġrup": 2041,
      "Ġmost": 2042,
      "Ġseptal": 2043,
      "Ġnoncontrast": 2044,
      "Ġthrombosis": 2045,
      "Ġdays": 2046,
      "Ġtibia": 2047,
      "ribed": 2048,
      "Ġduodenum": 2049,
      "Ġapproxim": 2050,
      "Ġdislocation": 2051,
      "Ġneuro": 2052,
      "Ġarising": 2053,
      "Ġmitral": 2054,
      "Ġapex": 2055,
      "iation": 2056,
      "ox": 2057,
      "uter": 2058,
      "Ġshe": 2059,
      "Ġfdg": 2060,
      "Ġbrach": 2061,
      "Ġdifferen": 2062,
      "verteb": 2063,
      "Ġinclu": 2064,
      "Ġhemit": 2065,
      "Ġune": 2066,
      "Ġcysts": 2067,
      "Ġappen": 2068,
      "cedure": 2069,
      "Ġradiolog": 2070,
      "Ġhydro": 2071,
      "Ġskull": 2072,
      "Ġvisualized": 2073,
      "Ġparasternal": 2074,
      "Ġeffect": 2075,
      "sh": 2076,
      "sus": 2077,
      "Ġtarg": 2078,
      "ones": 2079,
      "Ġtherapy": 2080,
      "Ġprim": 2081,
      "rist": 2082,
      "sty": 2083,
      "Ġbas": 2084,
      "Ġbarium": 2085,
      "Ġdevelop": 2086,
      "Ġcontinu": 2087,
      "Ġge": 2088,
      "Ġaddi": 2089,
      "Ġlim": 2090,
      "Ġpresented": 2091,
      "Ġveins": 2092,
      "Ġsugge": 2093,
      "Ġpoints": 2094,
      "Ġgreater": 2095,
      "Ġvertebrae": 2096,
      "Ġhomogeneous": 2097,
      "Ġpseudoaneurysm": 2098,
      "Ġmembran": 2099,
      "Ġrecovery": 2100,
      "Ġlymphadenopathy": 2101,
      "Ġrupture": 2102,
      "Ġhemithorax": 2103,
      "Ġtarget": 2104,
      "galy": 2105,
      "lite": 2106,
      "sf": 2107,
      "yle": 2108,
      "Ġace": 2109,
      "Ġstra": 2110,
      "Ġcall": 2111,
      "Ġlad": 2112,
      "stinal": 2113,
      "Ġbel": 2114,
      "ental": 2115,
      "Ġel": 2116,
      "atu": 2117,
      "ticul": 2118,
      "unic": 2119,
      "Ġexc": 2120,
      "ancy": 2121,
      "Ġprogres": 2122,
      "otomy": 2123,
      "Ġchamber": 2124,
      "Ġcour": 2125,
      "illary": 2126,
      "hesis": 2127,
      "Ġjugular": 2128,
      "Ġswelling": 2129,
      "Ġtrachea": 2130,
      "Ġfixation": 2131,
      "Ġhemorrhage": 2132,
      "vasation": 2133,
      "Ġapproximate": 2134,
      "Ġaceta": 2135,
      "nel": 2136,
      "of": 2137,
      "pal": 2138,
      "tu": 2139,
      "ues": 2140,
      "ins": 2141,
      "Ġslight": 2142,
      "Ġdys": 2143,
      "Ġfusion": 2144,
      "chamber": 2145,
      "Ġlater": 2146,
      "Ġnew": 2147,
      "Ġcollateral": 2148,
      "Ġemphyse": 2149,
      "Ġhernia": 2150,
      "Ġflair": 2151,
      "Ġforamen": 2152,
      "gn": 2153,
      "jun": 2154,
      "wi": 2155,
      "Ġother": 2156,
      "Ġprom": 2157,
      "Ġanat": 2158,
      "atus": 2159,
      "ctasis": 2160,
      "Ġdestruction": 2161,
      "Ġdeep": 2162,
      "Ġpap": 2163,
      "ached": 2164,
      "Ġext": 2165,
      "Ġprocedure": 2166,
      "Ġmaterial": 2167,
      "Ġring": 2168,
      "pression": 2169,
      "Ġpatholog": 2170,
      "Ġcalcifications": 2171,
      "Ġextravasation": 2172,
      "omegaly": 2173,
      "Ġbranches": 2174,
      "aryngeal": 2175,
      "Ġembolization": 2176,
      "Ġteeth": 2177,
      "Ġurinary": 2178,
      "12": 2179,
      "ape": 2180,
      "ces": 2181,
      "mus": 2182,
      "Ġtes": 2183,
      "tered": 2184,
      "Ġthese": 2185,
      "alam": 2186,
      "tiv": 2187,
      "aring": 2188,
      "ans": 2189,
      "station": 2190,
      "omet": 2191,
      "ule": 2192,
      "ulus": 2193,
      "Ġrep": 2194,
      "atory": 2195,
      "Ġradial": 2196,
      "Ġsuper": 2197,
      "Ġonly": 2198,
      "Ġasc": 2199,
      "stration": 2200,
      "Ġ35": 2201,
      "Ġcoil": 2202,
      "Ġcalcified": 2203,
      "Ġregions": 2204,
      "Ġedge": 2205,
      "inimal": 2206,
      "Ġsurgical": 2207,
      "Ġdisplacement": 2208,
      "Ġclearly": 2209,
      "Ġmatter": 2210,
      "otherapy": 2211,
      "Ġprimary": 2212,
      "Ġpromin": 2213,
      "ole": 2214,
      "Ġsus": 2215,
      "Ġsix": 2216,
      "enhanced": 2217,
      "Ġprior": 2218,
      "Ġdra": 2219,
      "Ġbiliary": 2220,
      "omed": 2221,
      "ise": 2222,
      "Ġvia": 2223,
      "Ġventral": 2224,
      "Ġlea": 2225,
      "olog": 2226,
      "Ġdete": 2227,
      "Ġhu": 2228,
      "Ġctscan": 2229,
      "Ġdiver": 2230,
      "Ġdigital": 2231,
      "Ġcortex": 2232,
      "Ġ22": 2233,
      "appe": 2234,
      "Ġmalign": 2235,
      "Ġtuberc": 2236,
      "Ġrectum": 2237,
      "Ġconfirmed": 2238,
      "Ġivc": 2239,
      "Ġtrun": 2240,
      "Ġillu": 2241,
      "uspid": 2242,
      "Ġovari": 2243,
      "Ġcommunic": 2244,
      "Ġperforation": 2245,
      "Ġau": 2246,
      "Ġsl": 2247,
      "rod": 2248,
      "Ġwrist": 2249,
      "Ġdot": 2250,
      "Ġdose": 2251,
      "ors": 2252,
      "Ġfur": 2253,
      "let": 2254,
      "own": 2255,
      "Ġatro": 2256,
      "lying": 2257,
      "Ġradiographs": 2258,
      "amm": 2259,
      "Ġless": 2260,
      "Ġstar": 2261,
      "Ġ30": 2262,
      "Ġmedium": 2263,
      "Ġcha": 2264,
      "Ġlungs": 2265,
      "Ġboy": 2266,
      "Ġmetho": 2267,
      "Ġsepa": 2268,
      "scribed": 2269,
      "Ġloop": 2270,
      "Ġabove": 2271,
      "Ġorbit": 2272,
      "metric": 2273,
      "Ġsynd": 2274,
      "Ġidentified": 2275,
      "Ġfield": 2276,
      "bre": 2277,
      "ift": 2278,
      "pre": 2279,
      "pus": 2280,
      "sis": 2281,
      "the": 2282,
      "Ġing": 2283,
      "Ġave": 2284,
      "Ġpic": 2285,
      "Ġpass": 2286,
      "Ġminimal": 2287,
      "Ġfinal": 2288,
      "Ġfund": 2289,
      "Ġface": 2290,
      "asia": 2291,
      "Ġnas": 2292,
      "Ġect": 2293,
      "Ġrightsided": 2294,
      "Ġconne": 2295,
      "Ġpari": 2296,
      "Ġenc": 2297,
      "rome": 2298,
      "Ġpole": 2299,
      "oneph": 2300,
      "astric": 2301,
      "Ġmay": 2302,
      "gene": 2303,
      "argement": 2304,
      "ucle": 2305,
      "Ġthickened": 2306,
      "Ġhosp": 2307,
      "formation": 2308,
      "Ġshunt": 2309,
      "Ġocclu": 2310,
      "Ġtraum": 2311,
      "Ġopacification": 2312,
      "Ġenlargement": 2313,
      "Ġcerebellar": 2314,
      "Ġ200": 2315,
      "Ġradiolucent": 2316,
      "Ġcausing": 2317,
      "Ġdepicting": 2318,
      "Ġurethra": 2319,
      "Ġremoval": 2320,
      "Ġdecreased": 2321,
      "Ġcondyle": 2322,
      "Ġreformat": 2323,
      "Ġbelow": 2324,
      "Ġapproximately": 2325,
      "dural": 2326,
      "ies": 2327,
      "zation": 2328,
      "tire": 2329,
      "Ġbasal": 2330,
      "Ġero": 2331,
      "lap": 2332,
      "atous": 2333,
      "osa": 2334,
      "Ġhr": 2335,
      "Ġhand": 2336,
      "urg": 2337,
      "Ġpatent": 2338,
      "Ġga": 2339,
      "sequ": 2340,
      "Ġentire": 2341,
      "Ġsigmoid": 2342,
      "Ġinfra": 2343,
      "issure": 2344,
      "pressed": 2345,
      "Ġsegments": 2346,
      "Ġclin": 2347,
      "Ġcompressing": 2348,
      "Ġsecondary": 2349,
      "Ġexample": 2350,
      "Ġepid": 2351,
      "Ġcrosssection": 2352,
      "Ġcurved": 2353,
      "Ġdiagnosis": 2354,
      "Ġdiagnosed": 2355,
      "Ġherniation": 2356,
      "Ġjust": 2357,
      "Ġbronchus": 2358,
      "Ġinsertion": 2359,
      "Ġuterus": 2360,
      "lavicular": 2361,
      "Ġfilm": 2362,
      "Ġposteroanterior": 2363,
      "Ġforeign": 2364,
      "Ġgadolinium": 2365,
      "vertebral": 2366,
      "Ġprominent": 2367,
      "Ġhospital": 2368,
      "min": 2369,
      "upe": 2370,
      "Ġic": 2371,
      "inous": 2372,
      "Ġsome": 2373,
      "rease": 2374,
      "Ġlam": 2375,
      "Ġwhere": 2376,
      "veolar": 2377,
      "Ġnucle": 2378,
      "Ġvari": 2379,
      "Ġleak": 2380,
      "Ġrim": 2381,
      "pected": 2382,
      "Ġpate": 2383,
      "seous": 2384,
      "ronic": 2385,
      "Ġpostoperatively": 2386,
      "Ġcoupe": 2387,
      "Ġmarrow": 2388,
      "artment": 2389,
      "Ġshift": 2390,
      "Ġcann": 2391,
      "Ġemission": 2392,
      "Ġfats": 2393,
      "Ġfoci": 2394,
      "comp": 2395,
      "Ġilldefined": 2396,
      "Ġcranial": 2397,
      "Ġuterine": 2398,
      "way": 2399,
      "Ġcaudal": 2400,
      "Ġselective": 2401,
      "Ġpoly": 2402,
      "Ġinversion": 2403,
      "Ġmembrane": 2404,
      "Ġparietal": 2405,
      "ful": 2406,
      "ien": 2407,
      "sities": 2408,
      "uted": 2409,
      "ale": 2410,
      "Ġmas": 2411,
      "icle": 2412,
      "pec": 2413,
      "Ġiso": 2414,
      "och": 2415,
      "ocular": 2416,
      "Ġmasses": 2417,
      "Ġ24": 2418,
      "ites": 2419,
      "Ġposs": 2420,
      "ically": 2421,
      "Ġdissection": 2422,
      "most": 2423,
      "Ġperitoneal": 2424,
      "Ġrca": 2425,
      "Ġfragment": 2426,
      "ipital": 2427,
      "Ġreduced": 2428,
      "Ġfractures": 2429,
      "ject": 2430,
      "Ġcect": 2431,
      "Ġoccup": 2432,
      "Ġimpro": 2433,
      "Ġappears": 2434,
      "Ġpatch": 2435,
      "Ġradiolucency": 2436,
      "Ġabout": 2437,
      "Ġdrainage": 2438,
      "Ġretinal": 2439,
      "Ġhyperechoic": 2440,
      "Ġascites": 2441,
      "Ġdraw": 2442,
      "Ġtrunk": 2443,
      "Ġsyndrome": 2444,
      "breviation": 2445,
      "Ġpicture": 2446,
      "Ġfundus": 2447,
      "au": 2448,
      "da": 2449,
      "Ġy": 2450,
      "Ġage": 2451,
      "Ġtur": 2452,
      "inant": 2453,
      "Ġcx": 2454,
      "Ġoval": 2455,
      "reated": 2456,
      "rode": 2457,
      "Ġlytic": 2458,
      "Ġmamm": 2459,
      "itron": 2460,
      "Ġfail": 2461,
      "Ġresection": 2462,
      "ator": 2463,
      "unnel": 2464,
      "Ġdevic": 2465,
      "etus": 2466,
      "Ġ16": 2467,
      "Ġ21": 2468,
      "Ġhyperden": 2469,
      "Ġsigns": 2470,
      "Ġgrade": 2471,
      "abdom": 2472,
      "Ġmetastatic": 2473,
      "Ġcircle": 2474,
      "Ġinfiltrates": 2475,
      "Ġwhole": 2476,
      "Ġorbital": 2477,
      "Ġiii": 2478,
      "Ġinfarction": 2479,
      "Ġhistory": 2480,
      "Ġemphysema": 2481,
      "Ġatrophy": 2482,
      "Ġmethod": 2483,
      "bul": 2484,
      "cing": 2485,
      "cus": 2486,
      "ilateral": 2487,
      "vaginal": 2488,
      "ĠÎ": 2489,
      "Ġent": 2490,
      "Ġtor": 2491,
      "Ġpal": 2492,
      "Ġinta": 2493,
      "Ġwire": 2494,
      "Ġany": 2495,
      "omatic": 2496,
      "traction": 2497,
      "ocal": 2498,
      "ricuspid": 2499,
      "Ġ27": 2500,
      "Ġprobe": 2501,
      "Ġalveolar": 2502,
      "Ġlobulated": 2503,
      "Ġintrahepatic": 2504,
      "Ã©ri": 2505,
      "Ġlevels": 2506,
      "Ġhypointense": 2507,
      "Ġmetastases": 2508,
      "Ġmargins": 2509,
      "Ġinserted": 2510,
      "Ġinvasion": 2511,
      "Ġbleeding": 2512,
      "Ġevaluation": 2513,
      "Ġgood": 2514,
      "Ġillustra": 2515,
      "Ġfurther": 2516,
      "Ġingu": 2517,
      "Ġavec": 2518,
      "Ġhrct": 2519,
      "Ġintact": 2520,
      "10": 2521,
      "ccess": 2522,
      "cutaneous": 2523,
      "fied": 2524,
      "gu": 2525,
      "ginal": 2526,
      "hy": 2527,
      "rÃ©": 2528,
      "ons": 2529,
      "Ġsmo": 2530,
      "Ġcut": 2531,
      "Ġoment": 2532,
      "Ġouter": 2533,
      "Ġfa": 2534,
      "lex": 2535,
      "Ġrem": 2536,
      "Ġrepa": 2537,
      "uminal": 2538,
      "atal": 2539,
      "osum": 2540,
      "Ġsuccess": 2541,
      "Ġscans": 2542,
      "ility": 2543,
      "Ġcorpus": 2544,
      "opic": 2545,
      "chn": 2546,
      "Ġcaps": 2547,
      "Ġke": 2548,
      "Ġopg": 2549,
      "Ġactive": 2550,
      "Ġbilaterally": 2551,
      "Ġmultiloc": 2552,
      "Ġchan": 2553,
      "Ġchronic": 2554,
      "Ġ50": 2555,
      "Ġvertical": 2556,
      "Ġlympho": 2557,
      "Ġosteol": 2558,
      "toneum": 2559,
      "Ġstricture": 2560,
      "Ġphot": 2561,
      "Ġcharac": 2562,
      "Ġreformatted": 2563,
      "sequent": 2564,
      "cle": 2565,
      "dm": 2566,
      "eal": 2567,
      "flow": 2568,
      "ioc": 2569,
      "iosis": 2570,
      "no": 2571,
      "ping": 2572,
      "rin": 2573,
      "uated": 2574,
      "Ġtricuspid": 2575,
      "hetic": 2576,
      "rost": 2577,
      "Ġmi": 2578,
      "itation": 2579,
      "Ġfetus": 2580,
      "Ġback": 2581,
      "ism": 2582,
      "used": 2583,
      "Ġrepla": 2584,
      "Ġrelation": 2585,
      "osal": 2586,
      "Ġdeg": 2587,
      "Ġhum": 2588,
      "Ġconto": 2589,
      "Ġsco": 2590,
      "Ġramus": 2591,
      "Ġdiffusion": 2592,
      "Ġgy": 2593,
      "Ġcorre": 2594,
      "Ġ17": 2595,
      "Ġpoor": 2596,
      "Ġpositron": 2597,
      "wever": 2598,
      "Ġdisappe": 2599,
      "Ġmaj": 2600,
      "Ġhowever": 2601,
      "dicular": 2602,
      "Ġoss": 2603,
      "Ġhypoplas": 2604,
      "Ġchoroid": 2605,
      "Ġhomogenous": 2606,
      "glass": 2607,
      "Ġinflammation": 2608,
      "Ġattached": 2609,
      "Ġorthopantomogram": 2610,
      "Ġsuggesting": 2611,
      "Ġsuspected": 2612,
      "Ġdotted": 2613,
      "Ġdevice": 2614,
      "Ġinguinal": 2615,
      "are": 2616,
      "cer": 2617,
      "cran": 2618,
      "fin": 2619,
      "fusion": 2620,
      "pen": 2621,
      "ymal": 2622,
      "Ġao": 2623,
      "Ġterm": 2624,
      "heli": 2625,
      "Ġcb": 2626,
      "rop": 2627,
      "ries": 2628,
      "Ġanti": 2629,
      "itheli": 2630,
      "isp": 2631,
      "Ġrela": 2632,
      "ters": 2633,
      "cem": 2634,
      "Ġdela": 2635,
      "Ġdeform": 2636,
      "pective": 2637,
      "Ġset": 2638,
      "Ġscap": 2639,
      "Ġdire": 2640,
      "action": 2641,
      "Ġresul": 2642,
      "Ġ40": 2643,
      "aps": 2644,
      "asculari": 2645,
      "Ġtechn": 2646,
      "Ġwellc": 2647,
      "Ġclass": 2648,
      "Ġevident": 2649,
      "Ġrectus": 2650,
      "Ġrepresents": 2651,
      "Ġfourth": 2652,
      "Ġconfirm": 2653,
      "Ġcells": 2654,
      "Ġglob": 2655,
      "ituitary": 2656,
      "Ġnecrosis": 2657,
      "Ġimmediately": 2658,
      "Ġoperation": 2659,
      "Ġileum": 2660,
      "arcoma": 2661,
      "Ġearly": 2662,
      "Ġulnar": 2663,
      "Ġpapillary": 2664,
      "onephrosis": 2665,
      "Ġerosion": 2666,
      "lapse": 2667,
      "Ġcxr": 2668,
      "axi": 2669,
      "uch": 2670,
      "went": 2671,
      "Ġach": 2672,
      "Ġspect": 2673,
      "Ġcy": 2674,
      "ens": 2675,
      "enis": 2676,
      "Ġpituitary": 2677,
      "Ġmix": 2678,
      "Ġdone": 2679,
      "ortic": 2680,
      "Ġfissure": 2681,
      "Ġband": 2682,
      "physis": 2683,
      "uld": 2684,
      "ussus": 2685,
      "Ġartif": 2686,
      "graphy": 2687,
      "rown": 2688,
      "dix": 2689,
      "dified": 2690,
      "Ġhilar": 2691,
      "Ġtoward": 2692,
      "Ġscar": 2693,
      "aces": 2694,
      "Ġaxillary": 2695,
      "Ġbif": 2696,
      "Ġ38": 2697,
      "Ġpredom": 2698,
      "Ġpregn": 2699,
      "lip": 2700,
      "Ġoblite": 2701,
      "Ġacqu": 2702,
      "Ġacross": 2703,
      "Ġdistrib": 2704,
      "Ġchild": 2705,
      "Ġincrease": 2706,
      "Ġfound": 2707,
      "Ġfoot": 2708,
      "structed": 2709,
      "Ġtissues": 2710,
      "plasty": 2711,
      "Ġsinuses": 2712,
      "Ġsegmental": 2713,
      "Ġkidneys": 2714,
      "Ġphal": 2715,
      "Ġsupp": 2716,
      "Ġunderwent": 2717,
      "Ġsacral": 2718,
      "Ġabnormality": 2719,
      "Ġfourchamber": 2720,
      "Ġflap": 2721,
      "Ġhave": 2722,
      "Ġcaused": 2723,
      "Ġscrews": 2724,
      "Ġelev": 2725,
      "fluid": 2726,
      "Ġintussus": 2727,
      "Ġgroup": 2728,
      "Ġsheath": 2729,
      "Ġappendix": 2730,
      "Ġdetected": 2731,
      "Ġovarian": 2732,
      "abdominal": 2733,
      "Ġrelative": 2734,
      "Ġintussusce": 2735,
      "axis": 2736,
      "cation": 2737,
      "ired": 2738,
      "noid": 2739,
      "pat": 2740,
      "sti": 2741,
      "treatment": 2742,
      "ug": 2743,
      "Ġtunnel": 2744,
      "Ġsa": 2745,
      "Ġstran": 2746,
      "Ġpun": 2747,
      "rium": 2748,
      "ritis": 2749,
      "Ġmip": 2750,
      "Ġanom": 2751,
      "Ġdro": 2752,
      "Ġdas": 2753,
      "arcinoma": 2754,
      "its": 2755,
      "Ġflo": 2756,
      "Ġfetal": 2757,
      "Ġrest": 2758,
      "ations": 2759,
      "Ġthigh": 2760,
      "eli": 2761,
      "Ġsee": 2762,
      "Ġray": 2763,
      "Ġcompati": 2764,
      "Ġgene": 2765,
      "Ġradius": 2766,
      "Ġ19": 2767,
      "Ġcomputer": 2768,
      "amic": 2769,
      "Ġlab": 2770,
      "tail": 2771,
      "Ġstone": 2772,
      "Ġresult": 2773,
      "luc": 2774,
      "wee": 2775,
      "Ġsubsequent": 2776,
      "Ġmagn": 2777,
      "Ġextends": 2778,
      "Ġshape": 2779,
      "Ġdilation": 2780,
      "Ġmaxilla": 2781,
      "Ġfeature": 2782,
      "ventional": 2783,
      "abbreviation": 2784,
      "umeral": 2785,
      "Ġdisplaced": 2786,
      "Ġroots": 2787,
      "ondral": 2788,
      "Ġinterest": 2789,
      "Ġhaem": 2790,
      "rachnoid": 2791,
      "Ġtracheal": 2792,
      "arynx": 2793,
      "Ġcontaining": 2794,
      "ostal": 2795,
      "Ġsymmetric": 2796,
      "Ġhealing": 2797,
      "Ġrecurrence": 2798,
      "opaque": 2799,
      "Ġacetabular": 2800,
      "Ġsuperfic": 2801,
      "Ġdiverticul": 2802,
      "Ġtrauma": 2803,
      "Ġgauc": 2804,
      "Ġdrawn": 2805,
      "Ġsmooth": 2806,
      "Ġartifact": 2807,
      "co": 2808,
      "cp": 2809,
      "cular": 2810,
      "get": 2811,
      "led": 2812,
      "ring": 2813,
      "Ġtro": 2814,
      "herence": 2815,
      "Ġsyst": 2816,
      "Ġsitu": 2817,
      "Ġod": 2818,
      "Ġpyel": 2819,
      "Ġmening": 2820,
      "Ġindi": 2821,
      "Ġanast": 2822,
      "Ġdyn": 2823,
      "ord": 2824,
      "Ġfal": 2825,
      "Ġflex": 2826,
      "Ġbright": 2827,
      "pharyngeal": 2828,
      "Ġrema": 2829,
      "term": 2830,
      "Ġips": 2831,
      "Ġnumb": 2832,
      "Ġdimension": 2833,
      "ocyst": 2834,
      "Ġ28": 2835,
      "soas": 2836,
      "Ġadm": 2837,
      "ardium": 2838,
      "Ġplacent": 2839,
      "Ġaccess": 2840,
      "Ġactiv": 2841,
      "Ġlargest": 2842,
      "position": 2843,
      "Ġcement": 2844,
      "achment": 2845,
      "Ġmalformation": 2846,
      "Ġgran": 2847,
      "ircum": 2848,
      "Ġpneumon": 2849,
      "Ġblock": 2850,
      "Ġinside": 2851,
      "Ġoutflow": 2852,
      "Ġseveral": 2853,
      "Ġintestinal": 2854,
      "Ġbronchie": 2855,
      "Ġoriginating": 2856,
      "Ġribs": 2857,
      "Ġsclerosis": 2858,
      "Ġinfarct": 2859,
      "Ġelect": 2860,
      "Ġrecurrent": 2861,
      "vision": 2862,
      "Ġpedicle": 2863,
      "aturated": 2864,
      "Ġcourse": 2865,
      "Ġanatom": 2866,
      "omediast": 2867,
      "Ġleafle": 2868,
      "Ġoccluded": 2869,
      "Ġpatchy": 2870,
      "Ġfailure": 2871,
      "Ġsuccessful": 2872,
      "Ġcharacteris": 2873,
      "Ġmajor": 2874,
      "Ġdeformity": 2875,
      "axial": 2876,
      "Ġintussusception": 2877,
      "Ġcompatible": 2878,
      "lucose": 2879,
      "Ġsuperficial": 2880,
      "bs": 2881,
      "lob": 2882,
      "mar": 2883,
      "motherapy": 2884,
      "oce": 2885,
      "ped": 2886,
      "sa": 2887,
      "sure": 2888,
      "ĠÃ©": 2889,
      "Ġaut": 2890,
      "Ġtdm": 2891,
      "inte": 2892,
      "Ġclavic": 2893,
      "read": 2894,
      "Ġpig": 2895,
      "Ġinde": 2896,
      "Ġank": 2897,
      "Ġann": 2898,
      "Ġben": 2899,
      "Ġbub": 2900,
      "ici": 2901,
      "Ġeach": 2902,
      "oliosis": 2903,
      "Ġcompared": 2904,
      "Ġcompartment": 2905,
      "acted": 2906,
      "thy": 2907,
      "ocarcinoma": 2908,
      "Ġcortic": 2909,
      "Ġradiographie": 2910,
      "irl": 2911,
      "Ġ26": 2912,
      "Ġabdomin": 2913,
      "Ġstage": 2914,
      "Ġstand": 2915,
      "Ġrespective": 2916,
      "Ġ37": 2917,
      "Ġsubtraction": 2918,
      "Ġanteriorly": 2919,
      "Ġanteriorposterior": 2920,
      "Ġbeen": 2921,
      "Ġtransplan": 2922,
      "Ġpercutaneous": 2923,
      "Ġ48": 2924,
      "Ġcoherence": 2925,
      "Ġendo": 2926,
      "Ġmodified": 2927,
      "reatography": 2928,
      "inistration": 2929,
      "Ġfluores": 2930,
      "Ġmeasurements": 2931,
      "Ġprostate": 2932,
      "Ġtriang": 2933,
      "Ġinflammatory": 2934,
      "Ġradiological": 2935,
      "shaped": 2936,
      "Ġcallosum": 2937,
      "Ġdyspl": 2938,
      "Ġhuge": 2939,
      "Ġclinical": 2940,
      "computed": 2941,
      "Ġrepair": 2942,
      "Ġterminal": 2943,
      "Ġdelayed": 2944,
      "Ġwellcircum": 2945,
      "Ġmixed": 2946,
      "Ġpregnancy": 2947,
      "Ġanastom": 2948,
      "Ġdynamic": 2949,
      "Ġadministration": 2950,
      "Ġwellcircumscribed": 2951,
      "15": 2952,
      "mi": 2953,
      "rup": 2954,
      "va": 2955,
      "ĠÃ": 2956,
      "inate": 2957,
      "onto": 2958,
      "Ġsid": 2959,
      "Ġstern": 2960,
      "Ġcent": 2961,
      "Ġpub": 2962,
      "Ġwhen": 2963,
      "Ġdown": 2964,
      "Ġbuc": 2965,
      "ised": 2966,
      "phic": 2967,
      "old": 2968,
      "Ġtop": 2969,
      "roma": 2970,
      "opanc": 2971,
      "yste": 2972,
      "Ġ23": 2973,
      "chogenic": 2974,
      "Ġmedian": 2975,
      "Ġcollapse": 2976,
      "Ġinterc": 2977,
      "Ġacrom": 2978,
      "ques": 2979,
      "Ġdural": 2980,
      "Ġmetal": 2981,
      "jected": 2982,
      "Ġthroug": 2983,
      "Ġabsent": 2984,
      "Ġosteotomy": 2985,
      "Ġcomplex": 2986,
      "Ġheterogenous": 2987,
      "Ġclose": 2988,
      "Ġfilled": 2989,
      "Ġfistul": 2990,
      "Ġrepresenting": 2991,
      "Ġhydr": 2992,
      "Ġsonogram": 2993,
      "Ġcontact": 2994,
      "Ġglass": 2995,
      "Ġsclerotic": 2996,
      "Ġinvasive": 2997,
      "Ġcholangiopanc": 2998,
      "Ġgroundglass": 2999,
      "Ġincluding": 3000,
      "Ġdeveloped": 3001,
      "Ġgestation": 3002,
      "Ġtubercul": 3003,
      "Ġmultilocular": 3004,
      "Ġchange": 3005,
      "Ġlymphoma": 3006,
      "Ġdashed": 3007,
      "Ġgauche": 3008,
      "Ġodonto": 3009,
      "Ġthroughout": 3010,
      "ovenous": 3011,
      "sile": 3012,
      "war": 3013,
      "Ġes": 3014,
      "Ġtreated": 3015,
      "teal": 3016,
      "Ġoral": 3017,
      "enhancing": 3018,
      "rid": 3019,
      "Ġmor": 3020,
      "Ġmiss": 3021,
      "Ġinner": 3022,
      "Ġanal": 3023,
      "arth": 3024,
      "anal": 3025,
      "Ġfasc": 3026,
      "erus": 3027,
      "esis": 3028,
      "Ġvag": 3029,
      "ctor": 3030,
      "Ġdegene": 3031,
      "Ġdeterm": 3032,
      "Ġhil": 3033,
      "Ġthalam": 3034,
      "Ġconventional": 3035,
      "Ġscale": 3036,
      "Ġgrow": 3037,
      "Ġhepat": 3038,
      "acial": 3039,
      "occ": 3040,
      "Ġasym": 3041,
      "Ġspont": 3042,
      "Ġchemotherapy": 3043,
      "Ġpoin": 3044,
      "roscopic": 3045,
      "Ġ32": 3046,
      "Ġprem": 3047,
      "iform": 3048,
      "Ġbeing": 3049,
      "Ġtransvaginal": 3050,
      "Ġoptical": 3051,
      "Ġposteriorly": 3052,
      "posed": 3053,
      "Ġinvad": 3054,
      "Ġheads": 3055,
      "Ġhypertro": 3056,
      "Ġhyperintensity": 3057,
      "Ġoccipital": 3058,
      "umbil": 3059,
      "Ġductal": 3060,
      "Ġdense": 3061,
      "Ġpneumomediast": 3062,
      "tiss": 3063,
      "Ġepitheli": 3064,
      "Ġrectal": 3065,
      "Ġrepresentative": 3066,
      "Ġparenchymal": 3067,
      "Ġapproach": 3068,
      "Ġprosthesis": 3069,
      "Ġwidth": 3070,
      "Ġstir": 3071,
      "Ġarthro": 3072,
      "Ġadditional": 3073,
      "Ġlesser": 3074,
      "Ġoccupying": 3075,
      "Ġimprovement": 3076,
      "Ġcapsule": 3077,
      "Ġhumerus": 3078,
      "cranial": 3079,
      "pendicular": 3080,
      "Ġpredominant": 3081,
      "Ġdistribution": 3082,
      "Ġstranding": 3083,
      "Ġrespectively": 3084,
      "aortic": 3085,
      "ci": 3086,
      "ejun": 3087,
      "ging": 3088,
      "ling": 3089,
      "ns": 3090,
      "pinal": 3091,
      "sor": 3092,
      "ux": 3093,
      "vc": 3094,
      "Ġate": 3095,
      "Ġste": 3096,
      "Ġlac": 3097,
      "Ġmyel": 3098,
      "Ġmenis": 3099,
      "Ġante": 3100,
      "homo": 3101,
      "ording": 3102,
      "Ġfused": 3103,
      "gration": 3104,
      "Ġnail": 3105,
      "Ġva": 3106,
      "Ġleg": 3107,
      "dies": 3108,
      "dibular": 3109,
      "dimension": 3110,
      "olumbar": 3111,
      "ata": 3112,
      "Ġsem": 3113,
      "Ġscoliosis": 3114,
      "Ġdiast": 3115,
      "Ġgirl": 3116,
      "Ġradiopaque": 3117,
      "ilocular": 3118,
      "ocardial": 3119,
      "vern": 3120,
      "Ġcontralateral": 3121,
      "Ġwhile": 3122,
      "Ġ36": 3123,
      "Ġjejun": 3124,
      "Ġlike": 3125,
      "Ġpers": 3126,
      "Ġincid": 3127,
      "Ġhemisp": 3128,
      "Ġ55": 3129,
      "Ġvery": 3130,
      "Ġunilocular": 3131,
      "llar": 3132,
      "Ġusep": 3133,
      "Ġindicate": 3134,
      "angi": 3135,
      "ually": 3136,
      "Ġducts": 3137,
      "Ġechocardiographic": 3138,
      "Ġappa": 3139,
      "Ġ70": 3140,
      "Ġ75": 3141,
      "Ġclos": 3142,
      "Ġunderlying": 3143,
      "Ġmarkedly": 3144,
      "Ġimplantation": 3145,
      "lastic": 3146,
      "Ġfluoroscopy": 3147,
      "henoid": 3148,
      "Ġduodenal": 3149,
      "Ġproton": 3150,
      "Ġadenocarcinoma": 3151,
      "Ġcircumferen": 3152,
      "Ġexpansile": 3153,
      "Ġpreviously": 3154,
      "Ġdistended": 3155,
      "Ġincisor": 3156,
      "Ġbrachial": 3157,
      "Ġaddition": 3158,
      "Ġslightly": 3159,
      "Ġcrosssectional": 3160,
      "Ġpossible": 3161,
      "Ġchoroidal": 3162,
      "apsular": 3163,
      "eliac": 3164,
      "Ġpneumonia": 3165,
      "Ġclavicle": 3166,
      "Ġindex": 3167,
      "ĠÃł": 3168,
      "Ġsides": 3169,
      "Ġhydronephrosis": 3170,
      "Ġcholangiopancreatography": 3171,
      "wards": 3172,
      "Ġpneumomediastinum": 3173,
      "Ġusepack": 3174,
      "ain": 3175,
      "hind": 3176,
      "mic": 3177,
      "ov": 3178,
      "pro": 3179,
      "rd": 3180,
      "side": 3181,
      "tle": 3182,
      "uff": 3183,
      "Ġten": 3184,
      "Ġsal": 3185,
      "Ġceliac": 3186,
      "Ġlc": 3187,
      "Ġmural": 3188,
      "Ġwor": 3189,
      "Ġant": 3190,
      "Ġdid": 3191,
      "ort": 3192,
      "ortical": 3193,
      "ith": 3194,
      "Ġbic": 3195,
      "omas": 3196,
      "ased": 3197,
      "ules": 3198,
      "entation": 3199,
      "Ġeth": 3200,
      "Ġequ": 3201,
      "ional": 3202,
      "Ġdecom": 3203,
      "Ġdeviation": 3204,
      "ĠhÃ©": 3205,
      "Ġcont": 3206,
      "set": 3207,
      "Ġendom": 3208,
      "Ġsphenoid": 3209,
      "table": 3210,
      "ode": 3211,
      "Ġresor": 3212,
      "allow": 3213,
      "other": 3214,
      "Ġ34": 3215,
      "Ġalmost": 3216,
      "Ġsubm": 3217,
      "Ġsubdural": 3218,
      "Ġobstru": 3219,
      "Ġobvious": 3220,
      "Ġbehind": 3221,
      "Ġinterval": 3222,
      "Ġmechan": 3223,
      "Ġpermission": 3224,
      "Ġperpendicular": 3225,
      "Ġ45": 3226,
      "Ġextended": 3227,
      "renic": 3228,
      "Ġveget": 3229,
      "Ġrois": 3230,
      "Ġcould": 3231,
      "Ġinfection": 3232,
      "Ġemp": 3233,
      "Ġlongaxis": 3234,
      "Ġsofttiss": 3235,
      "Ġimpacted": 3236,
      "Ġvalue": 3237,
      "Ġarteriovenous": 3238,
      "hery": 3239,
      "Ġpositioned": 3240,
      "lication": 3241,
      "Ġzones": 3242,
      "Ġsacro": 3243,
      "Ġheterogeneously": 3244,
      "Ġsurrounded": 3245,
      "Ġperiphery": 3246,
      "Ġcurv": 3247,
      "Ġconfirms": 3248,
      "Ġpseudocyst": 3249,
      "rator": 3250,
      "Ġpartially": 3251,
      "piration": 3252,
      "ware": 3253,
      "ptom": 3254,
      "Ġechogenicity": 3255,
      "Ġposterolateral": 3256,
      "yglucose": 3257,
      "Ġexpansion": 3258,
      "cephalus": 3259,
      "Ġgiant": 3260,
      "oxyglucose": 3261,
      "Ġectopic": 3262,
      "Ġmasse": 3263,
      "Ġhyperdense": 3264,
      "Ġdegree": 3265,
      "Ġscore": 3266,
      "Ġossification": 3267,
      "Ġscapula": 3268,
      "Ġfeatures": 3269,
      "Ġnumber": 3270,
      "Ġbronchiectasis": 3271,
      "Ġcharacteristic": 3272,
      "Ġbuccal": 3273,
      "Ġintercostal": 3274,
      "Ġspontaneous": 3275,
      "Ġatele": 3276,
      "dimensional": 3277,
      "Ġsofttissue": 3278,
      "bow": 3279,
      "cri": 3280,
      "gulari": 3281,
      "mity": 3282,
      "otic": 3283,
      "stem": 3284,
      "tÃ©": 3285,
      "xt": 3286,
      "xus": 3287,
      "Ġsul": 3288,
      "Ġsided": 3289,
      "Ġspec": 3290,
      "Ġcis": 3291,
      "Ġcsf": 3292,
      "Ġcrown": 3293,
      "Ġoed": 3294,
      "ret": 3295,
      "reed": 3296,
      "tim": 3297,
      "Ġpt": 3298,
      "Ġpop": 3299,
      "Ġpsoas": 3300,
      "Ġlumb": 3301,
      "Ġmac": 3302,
      "Ġinst": 3303,
      "Ġwa": 3304,
      "Ġwide": 3305,
      "ication": 3306,
      "Ġarc": 3307,
      "Ġrelated": 3308,
      "ump": 3309,
      "atten": 3310,
      "Ġdefin": 3311,
      "Ġleftsided": 3312,
      "urcation": 3313,
      "Ġsec": 3314,
      "Ġparam": 3315,
      "Ġgang": 3316,
      "Ġgross": 3317,
      "Ġglen": 3318,
      "Ġische": 3319,
      "sep": 3320,
      "Ġenema": 3321,
      "range": 3322,
      "Ġdemonstrate": 3323,
      "Ġcap": 3324,
      "alled": 3325,
      "operi": 3326,
      "roscopy": 3327,
      "Ġadv": 3328,
      "Ġmedia": 3329,
      "Ġobtu": 3330,
      "Ġcolum": 3331,
      "Ġintermediate": 3332,
      "ympan": 3333,
      "Ġangiographic": 3334,
      "encephal": 3335,
      "Ġopll": 3336,
      "Ġlip": 3337,
      "Ġperine": 3338,
      "Ġ44": 3339,
      "Ġpressure": 3340,
      "Ġbound": 3341,
      "Ġbodies": 3342,
      "Ġcalculus": 3343,
      "Ġconside": 3344,
      "imension": 3345,
      "Ġairfluid": 3346,
      "Ġpleu": 3347,
      "Ġplexus": 3348,
      "Ġmrcp": 3349,
      "Ġuro": 3350,
      "Ġirm": 3351,
      "Ġoriginal": 3352,
      "Ġdepth": 3353,
      "Ġdeplo": 3354,
      "Ġirregulari": 3355,
      "ratory": 3356,
      "Ġasterisks": 3357,
      "Ġskin": 3358,
      "flex": 3359,
      "Ġborders": 3360,
      "Ġnecrotic": 3361,
      "mandibular": 3362,
      "Ġcontinuous": 3363,
      "Ġprogression": 3364,
      "Ġextre": 3365,
      "ology": 3366,
      "Ġmalignant": 3367,
      "Ġcommunication": 3368,
      "Ġepidural": 3369,
      "rodeoxyglucose": 3370,
      "Ġphotograph": 3371,
      "Ġtechnique": 3372,
      "Ġconfirming": 3373,
      "Ġpuncture": 3374,
      "Ġdroite": 3375,
      "Ġbenign": 3376,
      "Ġpremolar": 3377,
      "umbilical": 3378,
      "Ġapparent": 3379,
      "imensional": 3380,
      "arachnoid": 3381,
      "body": 3382,
      "dct": 3383,
      "est": 3384,
      "fer": 3385,
      "fact": 3386,
      "ited": 3387,
      "iel": 3388,
      "itive": 3389,
      "ok": 3390,
      "ypho": 3391,
      "Ġesophageal": 3392,
      "inct": 3393,
      "radi": 3394,
      "Ġske": 3395,
      "Ġsusp": 3396,
      "Ġthen": 3397,
      "ĠmÃ©": 3398,
      "Ġwo": 3399,
      "Ġdental": 3400,
      "arm": 3401,
      "itÃ©": 3402,
      "Ġarticular": 3403,
      "graph": 3404,
      "Ġrecess": 3405,
      "Ġiopa": 3406,
      "ticle": 3407,
      "Ġdeb": 3408,
      "Ġdet": 3409,
      "Ġhal": 3410,
      "Ġhumeral": 3411,
      "Ġthreed": 3412,
      "Ġparal": 3413,
      "Ġparotid": 3414,
      "acral": 3415,
      "Ġscanning": 3416,
      "ignal": 3417,
      "versal": 3418,
      "Ġspread": 3419,
      "cha": 3420,
      "chondral": 3421,
      "Ġlate": 3422,
      "Ġcavern": 3423,
      "Ġstones": 3424,
      "Ġdiscon": 3425,
      "ott": 3426,
      "astoid": 3427,
      "Ġpect": 3428,
      "Ġsubmandibular": 3429,
      "Ġsubarachnoid": 3430,
      "Ġsubchondral": 3431,
      "Ġintersti": 3432,
      "Ġlaterally": 3433,
      "Ġopening": 3434,
      "Ġintracranial": 3435,
      "Ġregurg": 3436,
      "Ġventricul": 3437,
      "Ġroi": 3438,
      "Ġaort": 3439,
      "Ġhemi": 3440,
      "Ġunion": 3441,
      "Ġunenhanced": 3442,
      "Ġusg": 3443,
      "Ġcephal": 3444,
      "Ġcanine": 3445,
      "Ġsepta": 3446,
      "Ġosteop": 3447,
      "Ġtear": 3448,
      "Ġcompletely": 3449,
      "Ġassess": 3450,
      "Ġbroncho": 3451,
      "Ġfibrosis": 3452,
      "Ġultrasonographic": 3453,
      "Ġweek": 3454,
      "Ġcurve": 3455,
      "Ġdoes": 3456,
      "Ġdiagnos": 3457,
      "ularis": 3458,
      "Ġminor": 3459,
      "Ġsimple": 3460,
      "Ġoperative": 3461,
      "Ġprotru": 3462,
      "Ġguide": 3463,
      "Ġdifferent": 3464,
      "Ġnucleus": 3465,
      "Ġpatella": 3466,
      "ienne": 3467,
      "bulum": 3468,
      "Ġillustrating": 3469,
      "Ġomentum": 3470,
      "Ġhypoplasia": 3471,
      "Ġsetting": 3472,
      "Ġbifurcation": 3473,
      "Ġsymmetrical": 3474,
      "Ġipsilateral": 3475,
      "Ġpredominantly": 3476,
      "Ġcircumferential": 3477,
      "Ġusepackage": 3478,
      "Ġsubmuc": 3479,
      "Ġsacroili": 3480,
      "Ġthreedimensional": 3481,
      "Ġinterstitial": 3482,
      "45": 3483,
      "duc": 3484,
      "ged": 3485,
      "ias": 3486,
      "kely": 3487,
      "lvic": 3488,
      "mural": 3489,
      "sd": 3490,
      "wire": 3491,
      "ylo": 3492,
      "Ġvel": 3493,
      "inf": 3494,
      "inatus": 3495,
      "Ġcrest": 3496,
      "Ġour": 3497,
      "Ġpene": 3498,
      "ria": 3499,
      "Ġmp": 3500,
      "Ġmade": 3501,
      "Ġanother": 3502,
      "Ġdome": 3503,
      "Ġfl": 3504,
      "ush": 3505,
      "Ġrepe": 3506,
      "Ġnume": 3507,
      "Ġvi": 3508,
      "Ġves": 3509,
      "Ġec": 3510,
      "Ġev": 3511,
      "trache": 3512,
      "atosis": 3513,
      "une": 3514,
      "Ġdeline": 3515,
      "Ġabut": 3516,
      "Ġablation": 3517,
      "Ġhere": 3518,
      "acar": 3519,
      "thalam": 3520,
      "Ġsuv": 3521,
      "sec": 3522,
      "romed": 3523,
      "opla": 3524,
      "Ġtomographycomputed": 3525,
      "Ġspaces": 3526,
      "allic": 3527,
      "rospinal": 3528,
      "Ġmap": 3529,
      "genital": 3530,
      "Ġkypho": 3531,
      "Ġinterpre": 3532,
      "Ġmultiplan": 3533,
      "Ġ46": 3534,
      "Ġextent": 3535,
      "Ġcalib": 3536,
      "Ġrotation": 3537,
      "Ġcore": 3538,
      "Ġfractured": 3539,
      "Ġcalcan": 3540,
      "Ġmetallic": 3541,
      "Ġmeasures": 3542,
      "Ġfew": 3543,
      "Ġhighly": 3544,
      "Ġtrabe": 3545,
      "medullary": 3546,
      "Ġsuprac": 3547,
      "Ġcerebrospinal": 3548,
      "Ġcompressed": 3549,
      "Ġdefects": 3550,
      "Ġmesh": 3551,
      "Ġmesial": 3552,
      "Ġpresenting": 3553,
      "Ġinfiltrating": 3554,
      "Ġfibro": 3555,
      "Ġimplanted": 3556,
      "Ġimplants": 3557,
      "trans": 3558,
      "Ġocclus": 3559,
      "rectal": 3560,
      "Ġmodel": 3561,
      "Ġcranioc": 3562,
      "Ġdepicts": 3563,
      "ylar": 3564,
      "Ġshadowing": 3565,
      "Ġagain": 3566,
      "ostomy": 3567,
      "Ġgastrointe": 3568,
      "Ġavul": 3569,
      "Ġstill": 3570,
      "Ġmucosal": 3571,
      "months": 3572,
      "cephalic": 3573,
      "Ġdistension": 3574,
      "Ġguid": 3575,
      "Ġaccording": 3576,
      "Ġbrachio": 3577,
      "Ġhydrocephalus": 3578,
      "Ġelbow": 3579,
      "Ġtortu": 3580,
      "Ġosteolytic": 3581,
      "Ġreplacement": 3582,
      "Ġdisappearance": 3583,
      "Ġdirection": 3584,
      "Ġobliteration": 3585,
      "Ġanomal": 3586,
      "Ġfloor": 3587,
      "Ġgeneral": 3588,
      "Ġdiverticulum": 3589,
      "Ġplacenta": 3590,
      "Ġactivity": 3591,
      "Ġankle": 3592,
      "Ġtuberculosis": 3593,
      "Ġlcx": 3594,
      "Ġethmoid": 3595,
      "Ġendomet": 3596,
      "Ġresorption": 3597,
      "Ġgangl": 3598,
      "Ġcolumn": 3599,
      "Ġregurgitation": 3600,
      "Ġnumerous": 3601,
      "tracheal": 3602,
      "Ġgastrointestinal": 3603,
      "13": 3604,
      "aud": 3605,
      "cl": 3606,
      "cence": 3607,
      "fill": 3608,
      "go": 3609,
      "less": 3610,
      "ned": 3611,
      "ove": 3612,
      "sagittal": 3613,
      "Ġtong": 3614,
      "rating": 3615,
      "Ġsi": 3616,
      "Ġsn": 3617,
      "Ġsil": 3618,
      "Ġsam": 3619,
      "Ġstem": 3620,
      "Ġcr": 3621,
      "Ġcli": 3622,
      "ally": 3623,
      "Ġoct": 3624,
      "Ġorange": 3625,
      "tio": 3626,
      "Ġpl": 3627,
      "Ġpr": 3628,
      "Ġpin": 3629,
      "Ġpow": 3630,
      "Ġlack": 3631,
      "rix": 3632,
      "ings": 3633,
      "Ġinn": 3634,
      "Ġdr": 3635,
      "ark": 3636,
      "ands": 3637,
      "Ġful": 3638,
      "Ġfall": 3639,
      "Ġbro": 3640,
      "Ġbull": 3641,
      "ages": 3642,
      "Ġdex": 3643,
      "Ġhi": 3644,
      "terization": 3645,
      "Ġcomb": 3646,
      "Ġcongenital": 3647,
      "Ġcta": 3648,
      "Ġdirect": 3649,
      "Ġpacem": 3650,
      "Ġgen": 3651,
      "Ġexh": 3652,
      "Ġexce": 3653,
      "ress": 3654,
      "ams": 3655,
      "Ġaxiale": 3656,
      "Ġlapa": 3657,
      "Ġrespon": 3658,
      "Ġneph": 3659,
      "ots": 3660,
      "Ġalign": 3661,
      "Ġpretreatment": 3662,
      "tesy": 3663,
      "Ġlikely": 3664,
      "Ġaccom": 3665,
      "Ġmean": 3666,
      "poral": 3667,
      "point": 3668,
      "Ġ42": 3669,
      "Ġregres": 3670,
      "Ġhours": 3671,
      "Ġcalculated": 3672,
      "Ġhypervascular": 3673,
      "Ġosti": 3674,
      "Ġosseous": 3675,
      "arietal": 3676,
      "Ġ60": 3677,
      "Ġ61": 3678,
      "Ġbrainstem": 3679,
      "omyel": 3680,
      "aker": 3681,
      "Ġairway": 3682,
      "Ġappear": 3683,
      "intensities": 3684,
      "Ġcarpal": 3685,
      "Ġport": 3686,
      "odenal": 3687,
      "Ġcerebell": 3688,
      "Ġureteral": 3689,
      "temporal": 3690,
      "Ġfront": 3691,
      "Ġintense": 3692,
      "Ġconflu": 3693,
      "density": 3694,
      "Ġreconstructed": 3695,
      "Ġcardiomegaly": 3696,
      "Ġvolum": 3697,
      "Ġtrue": 3698,
      "Ġbones": 3699,
      "Ġdraining": 3700,
      "Ġlocalized": 3701,
      "Ġforearm": 3702,
      "Ġsimilar": 3703,
      "Ġthoracolumbar": 3704,
      "Ġstrain": 3705,
      "Ġcourtesy": 3706,
      "Ġcollaterals": 3707,
      "Ġmalignancy": 3708,
      "Ġfatsup": 3709,
      "Ġfatsaturated": 3710,
      "Ġspectral": 3711,
      "Ġtrochan": 3712,
      "Ġsystolic": 3713,
      "Ġleaflet": 3714,
      "ocele": 3715,
      "Ġbubble": 3716,
      "Ġstandard": 3717,
      "Ġdysplasia": 3718,
      "Ġodontoid": 3719,
      "Ġanalysis": 3720,
      "Ġhilum": 3721,
      "Ġmeniscus": 3722,
      "Ġincidental": 3723,
      "Ġmechanical": 3724,
      "Ġatelectasis": 3725,
      "Ġcistern": 3726,
      "operitoneum": 3727,
      "Ġdiagnostic": 3728,
      "Ġpenetra": 3729,
      "romedial": 3730,
      "oplasty": 3731,
      "Ġmultiplanar": 3732,
      "11": 3733,
      "aw": 3734,
      "bo": 3735,
      "do": 3736,
      "duced": 3737,
      "equ": 3738,
      "hu": 3739,
      "haped": 3740,
      "mia": 3741,
      "ored": 3742,
      "walled": 3743,
      "xa": 3744,
      "zyg": 3745,
      "rary": 3746,
      "Ġsel": 3747,
      "Ġsvc": 3748,
      "Ġcri": 3749,
      "reatic": 3750,
      "titis": 3751,
      "rog": 3752,
      "Ġland": 3753,
      "Ġlying": 3754,
      "Ġms": 3755,
      "Ġmra": 3756,
      "Ġmob": 3757,
      "Ġmdct": 3758,
      "Ġinhomo": 3759,
      "Ġdent": 3760,
      "Ġfull": 3761,
      "Ġbar": 3762,
      "Ġbur": 3763,
      "uli": 3764,
      "left": 3765,
      "Ġreal": 3766,
      "Ġretained": 3767,
      "Ġreflu": 3768,
      "aging": 3769,
      "Ġvas": 3770,
      "Ġvaginal": 3771,
      "Ġeus": 3772,
      "lab": 3773,
      "ids": 3774,
      "olysis": 3775,
      "cein": 3776,
      "pet": 3777,
      "Ġtowards": 3778,
      "Ġcontent": 3779,
      "Ġscro": 3780,
      "Ġratio": 3781,
      "ured": 3782,
      "ureter": 3783,
      "Ġradio": 3784,
      "resolution": 3785,
      "chial": 3786,
      "fected": 3787,
      "Ġ31": 3788,
      "Ġadhe": 3789,
      "Ġsubject": 3790,
      "lied": 3791,
      "Ġcolour": 3792,
      "Ġkn": 3793,
      "Ġplace": 3794,
      "pleural": 3795,
      "Ġperfusion": 3796,
      "Ġintraoral": 3797,
      "poid": 3798,
      "Ġwalls": 3799,
      "Ġperiod": 3800,
      "ĠrÃ©": 3801,
      "Ġhorn": 3802,
      "Ġcost": 3803,
      "Ġmetacar": 3804,
      "Ġhyperintensities": 3805,
      "Ġfive": 3806,
      "Ġshaped": 3807,
      "Ġendpla": 3808,
      "Ġindicative": 3809,
      "Ġhighresolution": 3810,
      "Ġfatty": 3811,
      "Ġsoftware": 3812,
      "Ġarteriography": 3813,
      "Ġosteo": 3814,
      "Ġosteos": 3815,
      "Ġeffusions": 3816,
      "abolic": 3817,
      "Ġcatheterization": 3818,
      "Ġdiffic": 3819,
      "Ġpancreati": 3820,
      "Ġparts": 3821,
      "Ġfocus": 3822,
      "lock": 3823,
      "Ġabnormalities": 3824,
      "Ġ90": 3825,
      "Ġcrossing": 3826,
      "Ġsonography": 3827,
      "Ġsonographic": 3828,
      "Ġwidening": 3829,
      "piratory": 3830,
      "Ġurethral": 3831,
      "Ġsymptom": 3832,
      "Ġmyomet": 3833,
      "Ġmicroc": 3834,
      "Ġdiaphragmatic": 3835,
      "Ã¨ne": 3836,
      "ocket": 3837,
      "Ġcaudate": 3838,
      "Ġbulb": 3839,
      "Ġfields": 3840,
      "Ġcircumflex": 3841,
      "Ġappendic": 3842,
      "Ġbasilar": 3843,
      "Ġprogressive": 3844,
      "Ġanatomy": 3845,
      "ometric": 3846,
      "Ġcommunicating": 3847,
      "Ġseparate": 3848,
      "Ġpolypoid": 3849,
      "Ġpoorly": 3850,
      "week": 3851,
      "Ġgranul": 3852,
      "Ġabdominope": 3853,
      "Ġfluorescein": 3854,
      "Ġmissing": 3855,
      "Ġvagina": 3856,
      "Ġpointing": 3857,
      "Ġarthroplasty": 3858,
      "Ġpersistent": 3859,
      "Ġoedema": 3860,
      "Ġpleura": 3861,
      "ield": 3862,
      "Ġsacroiliac": 3863,
      "Ġbrachiocephalic": 3864,
      "Ġtortuous": 3865,
      "Ġanomalous": 3866,
      "Ġtongue": 3867,
      "Ġpacemaker": 3868,
      "Ġaccompan": 3869,
      "Ġlandmar": 3870,
      "Ġreflux": 3871,
      "Ġpancreatitis": 3872,
      "aval": 3873,
      "cor": 3874,
      "dge": 3875,
      "eure": 3876,
      "fa": 3877,
      "gastric": 3878,
      "ife": 3879,
      "ses": 3880,
      "signal": 3881,
      "utes": 3882,
      "uate": 3883,
      "yment": 3884,
      "Ġumbilical": 3885,
      "Ġter": 3886,
      "ino": 3887,
      "rable": 3888,
      "Ġpd": 3889,
      "Ġpons": 3890,
      "Ġling": 3891,
      "Ġluc": 3892,
      "Ġlarg": 3893,
      "Ġluminal": 3894,
      "Ġinjected": 3895,
      "Ġwed": 3896,
      "Ġanechoic": 3897,
      "Ġdoc": 3898,
      "orb": 3899,
      "ortion": 3900,
      "itre": 3901,
      "Ġbm": 3902,
      "isation": 3903,
      "isition": 3904,
      "phys": 3905,
      "lel": 3906,
      "letal": 3907,
      "level": 3908,
      "Ġrese": 3909,
      "Ġecc": 3910,
      "atholog": 3911,
      "ceration": 3912,
      "osacral": 3913,
      "Ġdem": 3914,
      "terio": 3915,
      "Ġseries": 3916,
      "Ġran": 3917,
      "Ġparan": 3918,
      "thal": 3919,
      "Ġsuture": 3920,
      "Ġcorrect": 3921,
      "opatholog": 3922,
      "Ġaspiration": 3923,
      "yscal": 3924,
      "Ġpouch": 3925,
      "Ġpositive": 3926,
      "Ġcast": 3927,
      "Ġrespiratory": 3928,
      "Ġposts": 3929,
      "Ġpostop": 3930,
      "Ġadequ": 3931,
      "lier": 3932,
      "ibility": 3933,
      "Ġbeca": 3934,
      "Ġplates": 3935,
      "plete": 3936,
      "Ġperman": 3937,
      "Ġintraabdominal": 3938,
      "Ġintramedullary": 3939,
      "Ġextensor": 3940,
      "Ġchond": 3941,
      "Ã©e": 3942,
      "Ġmidesophageal": 3943,
      "Ġmidsagittal": 3944,
      "Ġventricles": 3945,
      "Ġhol": 3946,
      "Ġ56": 3947,
      "opharynx": 3948,
      "Ġhypermet": 3949,
      "aries": 3950,
      "Ġ65": 3951,
      "cardia": 3952,
      "Ġsignals": 3953,
      "Ġinvolved": 3954,
      "Ġsubcapsular": 3955,
      "Ġsubcortical": 3956,
      "Ġcervic": 3957,
      "Ġpath": 3958,
      "Ġtwodimensional": 3959,
      "Ġsupine": 3960,
      "ogastric": 3961,
      "Ġzyg": 3962,
      "Ġepi": 3963,
      "Ġepic": 3964,
      "Ġcentrally": 3965,
      "Ġdisplacing": 3966,
      "Ġthinning": 3967,
      "Ġfixed": 3968,
      "Ġremoved": 3969,
      "Ġfilter": 3970,
      "Ġstable": 3971,
      "Ġhistopatholog": 3972,
      "Ġrounded": 3973,
      "Ġhealthy": 3974,
      "Ġthoracique": 3975,
      "Ġorthopantomograph": 3976,
      "Ġbased": 3977,
      "Ġlimb": 3978,
      "Ġsuggest": 3979,
      "aturation": 3980,
      "Ġpathology": 3981,
      "Ġstarting": 3982,
      "Ġica": 3983,
      "Ġlamine": 3984,
      "Ġpatellar": 3985,
      "Ġisolated": 3986,
      "Ġmammogram": 3987,
      "Ġremod": 3988,
      "Ġmigration": 3989,
      "Ġcbct": 3990,
      "Ġachie": 3991,
      "Ġacquired": 3992,
      "Ġphalan": 3993,
      "Ġsupply": 3994,
      "Ġelevated": 3995,
      "Ġhaematoma": 3996,
      "Ġfalse": 3997,
      "Ġanatomical": 3998,
      "lobular": 3999,
      "icious": 4000,
      "Ġanastomosis": 4001,
      "Ġdegenerative": 4002,
      "Ġgrowth": 4003,
      "Ġinvading": 4004,
      "Ġvegetation": 4005,
      "Ġpoplite": 4006,
      "ympanic": 4007,
      "Ġdeployment": 4008,
      "Ġirregularity": 4009,
      "Ġpectoral": 4010,
      "Ġprotruding": 4011,
      "Ġabutting": 4012,
      "Ġkyphosis": 4013,
      "Ġocclusal": 4014,
      "filled": 4015,
      "Ġdextro": 4016,
      "Ġalignment": 4017,
      "Ġfatsuppressed": 4018,
      "Ġmetacarpal": 4019,
      "Ġeccentric": 4020,
      "Ġparanasal": 4021,
      "yscale": 4022,
      "Ġbecause": 4023,
      "Ġpermanent": 4024,
      "aft": 4025,
      "car": 4026,
      "cum": 4027,
      "cystic": 4028,
      "des": 4029,
      "fib": 4030,
      "ires": 4031,
      "mb": 4032,
      "mit": 4033,
      "nant": 4034,
      "rusion": 4035,
      "tt": 4036,
      "ust": 4037,
      "vasculari": 4038,
      "wh": 4039,
      "xation": 4040,
      "yt": 4041,
      "Ġerc": 4042,
      "Ġtal": 4043,
      "onal": 4044,
      "Ġsyl": 4045,
      "Ġcn": 4046,
      "Ġpi": 4047,
      "rogram": 4048,
      "Ġlm": 4049,
      "Ġlat": 4050,
      "rie": 4051,
      "riform": 4052,
      "Ġwater": 4053,
      "Ġaneurys": 4054,
      "hole": 4055,
      "Ġdata": 4056,
      "stoma": 4057,
      "orted": 4058,
      "ither": 4059,
      "Ġfacial": 4060,
      "ish": 4061,
      "icular": 4062,
      "astic": 4063,
      "Ġrefer": 4064,
      "vered": 4065,
      "Ġnerv": 4066,
      "Ġvide": 4067,
      "idia": 4068,
      "ument": 4069,
      "Ġris": 4070,
      "Ġhis": 4071,
      "Ġhard": 4072,
      "Ġhyste": 4073,
      "urce": 4074,
      "Ġconc": 4075,
      "tension": 4076,
      "Ġsch": 4077,
      "Ġscat": 4078,
      "mental": 4079,
      "Ġher": 4080,
      "Ġisod": 4081,
      "illa": 4082,
      "Ġonset": 4083,
      "ette": 4084,
      "ancreatic": 4085,
      "oustic": 4086,
      "Ġspl": 4087,
      "Ġprob": 4088,
      "Ġprof": 4089,
      "Ġprodu": 4090,
      "taxis": 4091,
      "Ġstatus": 4092,
      "Ġstress": 4093,
      "operic": 4094,
      "Ġxrays": 4095,
      "Ġadult": 4096,
      "Ġsubac": 4097,
      "Ġsublu": 4098,
      "Ġintervertebral": 4099,
      "Ġplaque": 4100,
      "Ġtransversal": 4101,
      "Ġacoustic": 4102,
      "Ġintraperitoneal": 4103,
      "Ġintramural": 4104,
      "Ġperiventricular": 4105,
      "Ġ41": 4106,
      "Ġ47": 4107,
      "Ġincom": 4108,
      "Ġhemidia": 4109,
      "Ġ53": 4110,
      "Ġ58": 4111,
      "ophrenic": 4112,
      "Ġcavities": 4113,
      "jecting": 4114,
      "jejun": 4115,
      "Ġ68": 4116,
      "Ġvenogram": 4117,
      "Ġfeeding": 4118,
      "Ġmovement": 4119,
      "Ġdens": 4120,
      "Ġvalsal": 4121,
      "ascul": 4122,
      "Ġanterolateral": 4123,
      "Ġnonenhanced": 4124,
      "Ġnonenhancing": 4125,
      "vided": 4126,
      "Ġparasp": 4127,
      "ably": 4128,
      "Ġorientation": 4129,
      "Ġtracking": 4130,
      "Ġshortaxis": 4131,
      "Ġepig": 4132,
      "Ġoutl": 4133,
      "Ġoutline": 4134,
      "Ġoutlet": 4135,
      "Ġoutside": 4136,
      "Ġdisplaying": 4137,
      "Ġfibrous": 4138,
      "Ġintest": 4139,
      "Ġbronchial": 4140,
      "spinatus": 4141,
      "Ġhaving": 4142,
      "Ġlens": 4143,
      "Ġswallow": 4144,
      "Ġprosthetic": 4145,
      "Ġmatrix": 4146,
      "Ġmyocardial": 4147,
      "Ġminutes": 4148,
      "physeal": 4149,
      "Ġbullet": 4150,
      "Ġcircumscribed": 4151,
      "Ġintral": 4152,
      "Ġattachment": 4153,
      "Ġulna": 4154,
      "Ġaccum": 4155,
      "Ġhydroureter": 4156,
      "Ġstraight": 4157,
      "Ġacetabulum": 4158,
      "Ġpathological": 4159,
      "Ġtestis": 4160,
      "Ã©rieure": 4161,
      "Ġosteolysis": 4162,
      "Ġresulting": 4163,
      "Ġacquisition": 4164,
      "Ġphalanges": 4165,
      "Ġsternoc": 4166,
      "Ġhypertrophy": 4167,
      "Ġclosure": 4168,
      "Ġantrum": 4169,
      "Ġdecompression": 4170,
      "Ġcurvature": 4171,
      "Ġlumbosacral": 4172,
      "Ġglenoid": 4173,
      "Ġskeletal": 4174,
      "Ġsuspicious": 4175,
      "Ġhalf": 4176,
      "Ġcavernous": 4177,
      "audal": 4178,
      "Ġpower": 4179,
      "Ġexhib": 4180,
      "Ġostium": 4181,
      "zygos": 4182,
      "Ġmobile": 4183,
      "Ġabdominopelvic": 4184,
      "Ġzygomatic": 4185,
      "Ġlaminectomy": 4186,
      "Ġphalanx": 4187,
      "Ġpectoralis": 4188,
      "Ġercp": 4189,
      "Ġaneurysmal": 4190,
      "Ġisodose": 4191,
      "Ġhemidiaph": 4192,
      "aff": 4193,
      "atid": 4194,
      "aphyseal": 4195,
      "bron": 4196,
      "cs": 4197,
      "cles": 4198,
      "ex": 4199,
      "gative": 4200,
      "iasis": 4201,
      "kes": 4202,
      "nd": 4203,
      "uating": 4204,
      "view": 4205,
      "£o": 4206,
      "¼m": 4207,
      "Âµ": 4208,
      "Ã§": 4209,
      "Ã´": 4210,
      "Ã£o": 4211,
      "Ġtit": 4212,
      "Ġtent": 4213,
      "Ġtree": 4214,
      "Ġtable": 4215,
      "hem": 4216,
      "heric": 4217,
      "rale": 4218,
      "Ġsy": 4219,
      "Ġsag": 4220,
      "Ġstero": 4221,
      "Ġsaturation": 4222,
      "Ġtheir": 4223,
      "requ": 4224,
      "related": 4225,
      "tit": 4226,
      "ences": 4227,
      "Ġpy": 4228,
      "Ġpen": 4229,
      "Ġpur": 4230,
      "Ġput": 4231,
      "ĠprÃ©": 4232,
      "Ġpocket": 4233,
      "Ġoff": 4234,
      "rill": 4235,
      "Ġwill": 4236,
      "Ġancho": 4237,
      "Ġdam": 4238,
      "Ġdup": 4239,
      "ĠdÃ©": 4240,
      "articular": 4241,
      "anium": 4242,
      "angeal": 4243,
      "sth": 4244,
      "orsal": 4245,
      "Ġbott": 4246,
      "ominate": 4247,
      "ished": 4248,
      "errant": 4249,
      "ulla": 4250,
      "Ġren": 4251,
      "Ġreaction": 4252,
      "Ġrevision": 4253,
      "Ġif": 4254,
      "Ġvoid": 4255,
      "Ġvocal": 4256,
      "Ġvasculari": 4257,
      "Ġvitre": 4258,
      "Ġeff": 4259,
      "laps": 4260,
      "atar": 4261,
      "osteal": 4262,
      "ticles": 4263,
      "Ġimm": 4264,
      "Ġthus": 4265,
      "els": 4266,
      "eled": 4267,
      "Ġrap": 4268,
      "Ġparac": 4269,
      "Ġgut": 4270,
      "Ġaberrant": 4271,
      "opac": 4272,
      "anced": 4273,
      "Ġspond": 4274,
      "Ġprop": 4275,
      "Ġaffect": 4276,
      "Ġposte": 4277,
      "Ġstre": 4278,
      "Ġangulation": 4279,
      "Ġneoplas": 4280,
      "Ġ39": 4281,
      "Ġaltho": 4282,
      "Ġsubpleural": 4283,
      "genesis": 4284,
      "Ġmedical": 4285,
      "rong": 4286,
      "izing": 4287,
      "Ġtumoral": 4288,
      "Ġrh": 4289,
      "Ġdistinct": 4290,
      "Ġ51": 4291,
      "Ġinvag": 4292,
      "Ġuncin": 4293,
      "ophy": 4294,
      "ophytic": 4295,
      "Ġproximity": 4296,
      "Ġemer": 4297,
      "Ġsuperiorly": 4298,
      "Ġhypoe": 4299,
      "Ġhypothalam": 4300,
      "Ġdeno": 4301,
      "Ġvalues": 4302,
      "Ġseptation": 4303,
      "Ġgrayscale": 4304,
      "Ġinferiorly": 4305,
      "Ġosteoch": 4306,
      "Ġsuppression": 4307,
      "Ġjoints": 4308,
      "Ġpneumoperitoneum": 4309,
      "Ġtubular": 4310,
      "Ġdiffus": 4311,
      "thold": 4312,
      "Ġcirculation": 4313,
      "Ġgrey": 4314,
      "Ġstenting": 4315,
      "phalangeal": 4316,
      "Ġquan": 4317,
      "umenhanced": 4318,
      "Ġhydatid": 4319,
      "Ġcollections": 4320,
      "Ġbronchi": 4321,
      "Ġflat": 4322,
      "Ġnarrowed": 4323,
      "calc": 4324,
      "iotic": 4325,
      "Ġattenuated": 4326,
      "Ġagent": 4327,
      "Ġsymphysis": 4328,
      "Ġcomponents": 4329,
      "Ġadenoma": 4330,
      "fice": 4331,
      "Ġselected": 4332,
      "Ġsupras": 4333,
      "Ġincisors": 4334,
      "Ġhomogeneously": 4335,
      "Ġcoils": 4336,
      "Ġtubercle": 4337,
      "Ġleakage": 4338,
      "Ġyo": 4339,
      "guided": 4340,
      "Ġomental": 4341,
      "Ġcontours": 4342,
      "Ġclassic": 4343,
      "Ġglobe": 4344,
      "Ġrelatively": 4345,
      "abbreviations": 4346,
      "Ġaccessory": 4347,
      "Ġcentre": 4348,
      "Ġfascia": 4349,
      "Ġdetermined": 4350,
      "Ġsaline": 4351,
      "Ġobturator": 4352,
      "Ġconsidered": 4353,
      "Ġparallel": 4354,
      "Ġdiscontinu": 4355,
      "Ġcaliber": 4356,
      "Ġcraniocaudal": 4357,
      "Ġavulsion": 4358,
      "Ġguidance": 4359,
      "Ġgeneralized": 4360,
      "Ġendometrial": 4361,
      "Ġinnominate": 4362,
      "Ġresponse": 4363,
      "Ġregression": 4364,
      "Ġinhomogeneous": 4365,
      "Ġendplate": 4366,
      "Ġdifficult": 4367,
      "Ġsymptoms": 4368,
      "Ġlandmarks": 4369,
      "Ġlarger": 4370,
      "Ġadequate": 4371,
      "Ġpopliteal": 4372,
      "Ġnerves": 4373,
      "Ġscattered": 4374,
      "opericardium": 4375,
      "Ġsubluxation": 4376,
      "Ġincomplete": 4377,
      "Ġvalsalva": 4378,
      "Ġparaspinal": 4379,
      "Ġhemidiaphragm": 4380,
      "Ġtitanium": 4381,
      "Ġputam": 4382,
      "Ġbottom": 4383,
      "Ġalthough": 4384,
      "Ġuncinate": 4385,
      "60": 4386,
      "av": 4387,
      "aire": 4388,
      "agram": 4389,
      "col": 4390,
      "crosis": 4391,
      "ctiv": 4392,
      "focal": 4393,
      "gt": 4394,
      "lot": 4395,
      "oti": 4396,
      "oure": 4397,
      "poc": 4398,
      "rine": 4399,
      "rut": 4400,
      "wing": 4401,
      "wor": 4402,
      "yx": 4403,
      "Ġer": 4404,
      "Ġru": 4405,
      "ĠÂµ": 4406,
      "Ġta": 4407,
      "Ġtam": 4408,
      "iny": 4409,
      "inter": 4410,
      "onod": 4411,
      "Ġsm": 4412,
      "Ġser": 4413,
      "Ġsol": 4414,
      "Ġcd": 4415,
      "Ġcs": 4416,
      "tice": 4417,
      "enia": 4418,
      "Ġpm": 4419,
      "Ġptery": 4420,
      "Ġpall": 4421,
      "ĠlÃ©": 4422,
      "ril": 4423,
      "Ġwhe": 4424,
      "Ġdark": 4425,
      "iting": 4426,
      "Ġfine": 4427,
      "Ġfunction": 4428,
      "ision": 4429,
      "ermoid": 4430,
      "espre": 4431,
      "esional": 4432,
      "ley": 4433,
      "Ġreticular": 4434,
      "ograft": 4435,
      "Ġvascul": 4436,
      "Ġerect": 4437,
      "lastoma": 4438,
      "ceps": 4439,
      "cts": 4440,
      "Ġridge": 4441,
      "Ġdeli": 4442,
      "Ġthumb": 4443,
      "eling": 4444,
      "tened": 4445,
      "Ġcomplic": 4446,
      "Ġradiation": 4447,
      "monthold": 4448,
      "Ġscanner": 4449,
      "ocity": 4450,
      "Ġentero": 4451,
      "igu": 4452,
      "irs": 4453,
      "Ġaffected": 4454,
      "tated": 4455,
      "emoral": 4456,
      "ematous": 4457,
      "Ġstump": 4458,
      "Ġresol": 4459,
      "Ġneural": 4460,
      "Ġnegative": 4461,
      "Ġpostg": 4462,
      "Ġ33": 4463,
      "Ġmedullary": 4464,
      "ffdg": 4465,
      "Ġtransit": 4466,
      "Ġtransition": 4467,
      "Ġliqu": 4468,
      "Ġmultic": 4469,
      "Ġdura": 4470,
      "Ġ49": 4471,
      "Ġdistortion": 4472,
      "Ã©n": 4473,
      "ervation": 4474,
      "ervical": 4475,
      "Ġorg": 4476,
      "Ġsmaller": 4477,
      "Ġmarginal": 4478,
      "Ġcalcific": 4479,
      "Ġunilateral": 4480,
      "Ġmanife": 4481,
      "Ġ62": 4482,
      "Ġinfero": 4483,
      "Ġcontraste": 4484,
      "years": 4485,
      "reath": 4486,
      "Ġappeared": 4487,
      "Ġsections": 4488,
      "Ġplanes": 4489,
      "Ġplanning": 4490,
      "Ġosteomyel": 4491,
      "Ġcervix": 4492,
      "ulae": 4493,
      "ulaire": 4494,
      "Ġparapharyngeal": 4495,
      "Ġparaaortic": 4496,
      "Ġtest": 4497,
      "Ġphys": 4498,
      "Ġmedially": 4499,
      "atheter": 4500,
      "Ġmarkings": 4501,
      "Ġmesen": 4502,
      "Ġcatheters": 4503,
      "Ġhippoc": 4504,
      "thoracic": 4505,
      "Ġsacrum": 4506,
      "Ġ100": 4507,
      "cav": 4508,
      "Ġabnormally": 4509,
      "Ġultrasonogram": 4510,
      "Ġmaintained": 4511,
      "Ġoverlying": 4512,
      "Ġ150": 4513,
      "Ġdors": 4514,
      "rectomy": 4515,
      "Ġshould": 4516,
      "Ġdepicted": 4517,
      "flective": 4518,
      "Ġwidespre": 4519,
      "Ġshadows": 4520,
      "Ġportions": 4521,
      "Ġsynov": 4522,
      "Ġovoid": 4523,
      "adenoma": 4524,
      "Ġstab": 4525,
      "Ã¨s": 4526,
      "Ġcondylar": 4527,
      "Ġbulging": 4528,
      "Ġcholangiogram": 4529,
      "Ġgadoliniumenhanced": 4530,
      "Ġhyperechogenic": 4531,
      "Ġgroove": 4532,
      "Ġearlier": 4533,
      "Ġphoto": 4534,
      "Ġdifferenti": 4535,
      "Ġdifference": 4536,
      "Ġruptured": 4537,
      "Ġcallus": 4538,
      "Ġtesticle": 4539,
      "omedullary": 4540,
      "Ġslide": 4541,
      "Ġseparation": 4542,
      "Ġconnection": 4543,
      "Ġconnecting": 4544,
      "Ġlamina": 4545,
      "Ġhyperdensity": 4546,
      "Ġkeep": 4547,
      "note": 4548,
      "Ġcontour": 4549,
      "Ġdiffusionweighted": 4550,
      "Ġdisappeared": 4551,
      "Ġhypoplastic": 4552,
      "Ġcbd": 4553,
      "Ġantib": 4554,
      "Ġresults": 4555,
      "weeks": 4556,
      "Ġelectrode": 4557,
      "Ġanatomic": 4558,
      "Ġannular": 4559,
      "Ġtransplant": 4560,
      "Ġtriangle": 4561,
      "rupted": 4562,
      "Ġfistulous": 4563,
      "Ġthalamus": 4564,
      "Ġepithelium": 4565,
      "Ġvaric": 4566,
      "Ġhemisphere": 4567,
      "Ġobstructive": 4568,
      "cription": 4569,
      "Ġwave": 4570,
      "Ġdefinition": 4571,
      "Ġadvanced": 4572,
      "Ġboundaries": 4573,
      "Ġdetachment": 4574,
      "Ġassessment": 4575,
      "Ġguidewire": 4576,
      "Ġsubmucosal": 4577,
      "yloid": 4578,
      "Ġvelocity": 4579,
      "Ġcalcaneal": 4580,
      "Ġtrabec": 4581,
      "Ġsupraclavicular": 4582,
      "Ġsample": 4583,
      "Ġfully": 4584,
      "Ġtrochanter": 4585,
      "Ġsella": 4586,
      "Ġachieved": 4587,
      "Ġvideo": 4588,
      "Ġprobably": 4589,
      "Ġoutlined": 4590,
      "Ġintraluminal": 4591,
      "Ġaccumulation": 4592,
      "Ġvitreous": 4593,
      "Ġpteryg": 4594,
      "Ġliquid": 4595,
      "Ġhippocam": 4596,
      "Ġwidespread": 4597,
      "20": 4598,
      "af": 4599,
      "based": 4600,
      "cro": 4601,
      "cne": 4602,
      "ek": 4603,
      "eters": 4604,
      "fc": 4605,
      "ffe": 4606,
      "free": 4607,
      "gg": 4608,
      "ient": 4609,
      "ily": 4610,
      "kines": 4611,
      "lusion": 4612,
      "mc": 4613,
      "matous": 4614,
      "orodeoxyglucose": 4615,
      "ton": 4616,
      "tre": 4617,
      "topic": 4618,
      "uperior": 4619,
      "vus": 4620,
      "vular": 4621,
      "xy": 4622,
      "âĳ": 4623,
      "Ġae": 4624,
      "Ġaway": 4625,
      "Ġazygos": 4626,
      "inc": 4627,
      "inated": 4628,
      "Ġstal": 4629,
      "Ġsap": 4630,
      "Ġsarcoma": 4631,
      "Ġcres": 4632,
      "Ġoc": 4633,
      "Ġoro": 4634,
      "rec": 4635,
      "ties": 4636,
      "tique": 4637,
      "Ġpp": 4638,
      "Ġpix": 4639,
      "Ġls": 4640,
      "Ġlit": 4641,
      "rity": 4642,
      "Ġmc": 4643,
      "Ġmca": 4644,
      "Ġmature": 4645,
      "Ġmastoid": 4646,
      "Ġwing": 4647,
      "Ġdom": 4648,
      "Ġdsa": 4649,
      "orum": 4650,
      "ortal": 4651,
      "Ġfing": 4652,
      "Ġfast": 4653,
      "Ġbed": 4654,
      "Ġburs": 4655,
      "Ġbreath": 4656,
      "omatous": 4657,
      "isted": 4658,
      "ice": 4659,
      "ash": 4660,
      "ulmonary": 4661,
      "lec": 4662,
      "lear": 4663,
      "Ġretin": 4664,
      "Ġreferen": 4665,
      "Ġreticul": 4666,
      "aged": 4667,
      "agic": 4668,
      "Ġij": 4669,
      "Ġeither": 4670,
      "idus": 4671,
      "fth": 4672,
      "diaph": 4673,
      "osseous": 4674,
      "ctatic": 4675,
      "unting": 4676,
      "unsf": 4677,
      "Ġthym": 4678,
      "teria": 4679,
      "Ġcone": 4680,
      "Ġcontained": 4681,
      "tening": 4682,
      "tence": 4683,
      "xisting": 4684,
      "Ġhel": 4685,
      "Ġhepa": 4686,
      "ocolic": 4687,
      "Ġcorne": 4688,
      "Ġtomogram": 4689,
      "Ġexp": 4690,
      "anche": 4691,
      "amel": 4692,
      "Ġspin": 4693,
      "Ġcheck": 4694,
      "Ġprojecting": 4695,
      "Ġhyoid": 4696,
      "Ġlaceration": 4697,
      "emia": 4698,
      "Ġstro": 4699,
      "Ġstaging": 4700,
      "Ġstrong": 4701,
      "Ġstrut": 4702,
      "Ġstyloid": 4703,
      "Ġposttreatment": 4704,
      "rosal": 4705,
      "Ġallow": 4706,
      "Ġadne": 4707,
      "Ġsubtle": 4708,
      "Ġprevertebral": 4709,
      "Ġulcer": 4710,
      "Ġmedio": 4711,
      "Ġbeam": 4712,
      "Ġweight": 4713,
      "Ġinterventricular": 4714,
      "izes": 4715,
      "Ġperiosteal": 4716,
      "Ġrpa": 4717,
      "Ġinfant": 4718,
      "Ġfraction": 4719,
      "Ġpulmon": 4720,
      "Ġhour": 4721,
      "Ġhounsf": 4722,
      "Ġorder": 4723,
      "Ġroent": 4724,
      "Ġcalculi": 4725,
      "Ġunus": 4726,
      "Ġmetaph": 4727,
      "Ġosse": 4728,
      "Ġfemo": 4729,
      "Ġregional": 4730,
      "Ġfifth": 4731,
      "Ġmany": 4732,
      "Ġshaft": 4733,
      "Ġloculated": 4734,
      "Ġmuscularis": 4735,
      "Ġemb": 4736,
      "Ġmaximal": 4737,
      "Ġhighlight": 4738,
      "Ġhypointensity": 4739,
      "Ġportable": 4740,
      "Ġparatracheal": 4741,
      "vention": 4742,
      "Ġsuppressed": 4743,
      "Ġconfigu": 4744,
      "Ġcolonic": 4745,
      "Ġparticular": 4746,
      "Ġfibers": 4747,
      "Ġcardia": 4748,
      "Ġcrosses": 4749,
      "Ġperipancreatic": 4750,
      "gmented": 4751,
      "Ġwelld": 4752,
      "Ġdiscre": 4753,
      "Ġsites": 4754,
      "Ġpericardi": 4755,
      "Ġsplenomegaly": 4756,
      "henous": 4757,
      "Ġembolized": 4758,
      "Ġvisualization": 4759,
      "Ġslices": 4760,
      "ptomatic": 4761,
      "Ġgastrocne": 4762,
      "Ġ2012": 4763,
      "vesical": 4764,
      "Ġhealed": 4765,
      "chanteric": 4766,
      "Ġcholangiography": 4767,
      "arcated": 4768,
      "ductor": 4769,
      "duodenal": 4770,
      "Ġgroin": 4771,
      "Ġballooning": 4772,
      "ontan": 4773,
      "Ġneurolog": 4774,
      "uterine": 4775,
      "Ġelong": 4776,
      "Ġpapilla": 4777,
      "Ġreprod": 4778,
      "Ġfacet": 4779,
      "Ġnasogastric": 4780,
      "Ġconnected": 4781,
      "Ġisointense": 4782,
      "days": 4783,
      "Ġentry": 4784,
      "Ġpalate": 4785,
      "Ġremnant": 4786,
      "ioclavicular": 4787,
      "Ġdirected": 4788,
      "Ġelevation": 4789,
      "Ġflexure": 4790,
      "Ġpigment": 4791,
      "Ġpigtail": 4792,
      "Ġannulus": 4793,
      "mius": 4794,
      "Ġacromion": 4795,
      "Ġacromioclavicular": 4796,
      "arthritis": 4797,
      "Ġasymmetric": 4798,
      "Ġepithelial": 4799,
      "Ġdiastole": 4800,
      "Ġjejunal": 4801,
      "Ġjejunum": 4802,
      "retinal": 4803,
      "Ġmacular": 4804,
      "Ġinstrum": 4805,
      "septal": 4806,
      "transverse": 4807,
      "Ġlaparoscopic": 4808,
      "Ġconfluence": 4809,
      "Ġscrotal": 4810,
      "Ġknown": 4811,
      "Ġcostophrenic": 4812,
      "Ġosteoarthritis": 4813,
      "Ġmyometrium": 4814,
      "Ġappendicitis": 4815,
      "Ġhypermetabolic": 4816,
      "Ġsuggests": 4817,
      "Ġdextrocardia": 4818,
      "Ġrisk": 4819,
      "Ġconcentric": 4820,
      "Ġintestine": 4821,
      "Ġsaggital": 4822,
      "requency": 4823,
      "Ġanchor": 4824,
      "Ġrapid": 4825,
      "Ġstreak": 4826,
      "Ġputamen": 4827,
      "work": 4828,
      "Ġmulticystic": 4829,
      "Ġosteomyelitis": 4830,
      "Ġkeeping": 4831,
      "Ġstalk": 4832,
      "Ġsaphenous": 4833,
      "Ġmediolateral": 4834,
      "Ġhounsfield": 4835,
      "Ġgastrocnemius": 4836,
      "Ġreproduced": 4837,
      "18": 4838,
      "25": 4839,
      "ae": 4840,
      "bor": 4841,
      "can": 4842,
      "function": 4843,
      "faces": 4844,
      "hn": 4845,
      "hilar": 4846,
      "ioma": 4847,
      "kin": 4848,
      "ken": 4849,
      "mp": 4850,
      "mes": 4851,
      "nume": 4852,
      "oration": 4853,
      "ogenic": 4854,
      "ojejun": 4855,
      "pass": 4856,
      "rÃ¨s": 4857,
      "ss": 4858,
      "tc": 4859,
      "uth": 4860,
      "uette": 4861,
      "vo": 4862,
      "vs": 4863,
      "via": 4864,
      "yond": 4865,
      "Ã¯": 4866,
      "Ġq": 4867,
      "Ġyearold": 4868,
      "Ġâĳ": 4869,
      "Ġact": 4870,
      "Ġavid": 4871,
      "Ġagenesis": 4872,
      "Ġtse": 4873,
      "Ġtension": 4874,
      "inus": 4875,
      "heres": 4876,
      "Ġspe": 4877,
      "Ġsma": 4878,
      "Ġsized": 4879,
      "Ġsaturated": 4880,
      "Ġcro": 4881,
      "Ġcop": 4882,
      "Ġcine": 4883,
      "Ġcusp": 4884,
      "Ġclip": 4885,
      "alene": 4886,
      "retion": 4887,
      "rees": 4888,
      "timal": 4889,
      "time": 4890,
      "enic": 4891,
      "enne": 4892,
      "Ġplastic": 4893,
      "Ġlord": 4894,
      "inge": 4895,
      "Ġani": 4896,
      "houette": 4897,
      "Ġdye": 4898,
      "anding": 4899,
      "Ġfse": 4900,
      "Ġflan": 4901,
      "Ġfontan": 4902,
      "Ġbal": 4903,
      "Ġbund": 4904,
      "Ġbscan": 4905,
      "icles": 4906,
      "ulate": 4907,
      "grated": 4908,
      "graft": 4909,
      "Ġrece": 4910,
      "Ġreten": 4911,
      "tering": 4912,
      "Ġiris": 4913,
      "Ġisth": 4914,
      "Ġna": 4915,
      "Ġnip": 4916,
      "Ġvent": 4917,
      "Ġeas": 4918,
      "Ġeight": 4919,
      "cell": 4920,
      "osing": 4921,
      "oses": 4922,
      "union": 4923,
      "Ġdel": 4924,
      "Ġdepos": 4925,
      "Ġdefic": 4926,
      "Ġham": 4927,
      "Ġthy": 4928,
      "eline": 4929,
      "Ġconcha": 4930,
      "Ġseven": 4931,
      "Ġrad": 4932,
      "Ġcompare": 4933,
      "Ġdig": 4934,
      "Ġpack": 4935,
      "Ġaty": 4936,
      "Ġglu": 4937,
      "thick": 4938,
      "thyroid": 4939,
      "Ġnoise": 4940,
      "illi": 4941,
      "Ġencephal": 4942,
      "Ġexposed": 4943,
      "Ġexophytic": 4944,
      "Ġasd": 4945,
      "version": 4946,
      "ineal": 4947,
      "Ġ29": 4948,
      "Ġviews": 4949,
      "Ġlatero": 4950,
      "odon": 4951,
      "onecrosis": 4952,
      "Ġcause": 4953,
      "ĠaprÃ¨s": 4954,
      "Ġdisk": 4955,
      "Ġdisch": 4956,
      "Ġneo": 4957,
      "Ġpostpro": 4958,
      "rosity": 4959,
      "rosuperior": 4960,
      "Ġpreop": 4961,
      "lioma": 4962,
      "genogram": 4963,
      "Ġmedulla": 4964,
      "Ġforn": 4965,
      "Ġobje": 4966,
      "Ġbypass": 4967,
      "Ġcollaps": 4968,
      "fflu": 4969,
      "Ġbegin": 4970,
      "Ġbeyond": 4971,
      "Ġupon": 4972,
      "Ġinterface": 4973,
      "Ġplaques": 4974,
      "Ġabdominale": 4975,
      "rontal": 4976,
      "Ġoppos": 4977,
      "Ġlies": 4978,
      "Ġpersis": 4979,
      "Ġintraventricular": 4980,
      "Ġintrathoracic": 4981,
      "Ġwalled": 4982,
      "Ġperitoneum": 4983,
      "Ġmultifocal": 4984,
      "Ġ43": 4985,
      "Ġchias": 4986,
      "Ġregular": 4987,
      "Ġrot": 4988,
      "Ġcoar": 4989,
      "Ġ52": 4990,
      "Ġ54": 4991,
      "trochanteric": 4992,
      "Ġmetatar": 4993,
      "Ġuse": 4994,
      "structive": 4995,
      "Ġfollowed": 4996,
      "Ġnormally": 4997,
      "Ġsource": 4998,
      "Ġvenography": 4999,
      "Ġinfected": 5000,
      "Ġpreoperatively": 5001,
      "Ġfever": 5002,
      "Ġmotion": 5003,
      "Ġcarpi": 5004,
      "Ġhypoatten": 5005,
      "Ġarteriogram": 5006,
      "Ġvisit": 5007,
      "Ġgray": 5008,
      "Ġnons": 5009,
      "Ġnonunion": 5010,
      "Ġosteoma": 5011,
      "Ġapplied": 5012,
      "Ġedges": 5013,
      "abol": 5014,
      "Ġspinecho": 5015,
      "Ġpositions": 5016,
      "Ġorifice": 5017,
      "Ġdepartment": 5018,
      "Ġextraction": 5019,
      "scap": 5020,
      "Ġtrack": 5021,
      "Ġtracer": 5022,
      "Ġaneurysms": 5023,
      "thorax": 5024,
      "Ġsaccular": 5025,
      "Ġfluorodeoxyglucose": 5026,
      "Ġdisplayed": 5027,
      "contras": 5028,
      "Ġfibula": 5029,
      "Ġrepresented": 5030,
      "Ġcleft": 5031,
      "Ġ99": 5032,
      "endent": 5033,
      "Ġassociation": 5034,
      "Ġsignificantly": 5035,
      "umented": 5036,
      "Ġseverely": 5037,
      "Ġscreen": 5038,
      "Ġtuberosity": 5039,
      "Ġfixator": 5040,
      "000": 5041,
      "Ġdiaphysis": 5042,
      "Ġwidened": 5043,
      "Ġwindows": 5044,
      "Ġquadri": 5045,
      "Ġbranching": 5046,
      "adolinium": 5047,
      "Ġminim": 5048,
      "Ġidentification": 5049,
      "Ġcentered": 5050,
      "Ġsupraspinatus": 5051,
      "Ġmucosa": 5052,
      "Ġbleed": 5053,
      "ontine": 5054,
      "vertebra": 5055,
      "Ġeffects": 5056,
      "Ġcontinued": 5057,
      "Ġexclu": 5058,
      "Ġemphysematous": 5059,
      "Ġreported": 5060,
      "Ġsupernume": 5061,
      "Ġovaries": 5062,
      "Ġpassing": 5063,
      "Ġnasopharynx": 5064,
      "Ġencirc": 5065,
      "Ġ2008": 5066,
      "Ġinfrarenal": 5067,
      "Ġinfratemporal": 5068,
      "Ġcannula": 5069,
      "Ġovale": 5070,
      "Ġmammography": 5071,
      "notes": 5072,
      "rosthetic": 5073,
      "Ġdegrees": 5074,
      "Ġcorrection": 5075,
      "Ġcycles": 5076,
      "Ġanomaly": 5077,
      "Ġartifacts": 5078,
      "Ġpyelogram": 5079,
      "Ġflexor": 5080,
      "Ġdimensions": 5081,
      "Ġleaflets": 5082,
      "Ġendovascular": 5083,
      "Ġsternum": 5084,
      "Ġgestational": 5085,
      "Ġmorpho": 5086,
      "occipital": 5087,
      "Ġasymptomatic": 5088,
      "Ġworking": 5089,
      "Ġequal": 5090,
      "ĠhÃ©m": 5091,
      "Ġempty": 5092,
      "Ġspecim": 5093,
      "Ġparameters": 5094,
      "Ġischemic": 5095,
      "Ġischemia": 5096,
      "encephalic": 5097,
      "Ġurography": 5098,
      "factory": 5099,
      "ĠmÃ©ta": 5100,
      "Ġdebris": 5101,
      "Ġcephalometric": 5102,
      "Ġosteopo": 5103,
      "Ġsettings": 5104,
      "Ġusepackageams": 5105,
      "ducer": 5106,
      "Ġrepeat": 5107,
      "Ġinterpreted": 5108,
      "Ġganglia": 5109,
      "Ġsilhouette": 5110,
      "Ġclips": 5111,
      "Ġcerebellum": 5112,
      "Ġpenetrating": 5113,
      "Ġcriteria": 5114,
      "Ġmicrocatheter": 5115,
      "Ġdocumented": 5116,
      "Ġremodeling": 5117,
      "white": 5118,
      "Ġsylvian": 5119,
      "Ġreferred": 5120,
      "Ġtento": 5121,
      "Ġpurple": 5122,
      "Ġvascularity": 5123,
      "Ġaffecting": 5124,
      "Ġseptations": 5125,
      "Ġosteochond": 5126,
      "Ġdiffusely": 5127,
      "Ġyoung": 5128,
      "Ġtampon": 5129,
      "Ġsolitary": 5130,
      "ĠlÃ©sion": 5131,
      "Ġmesentery": 5132,
      "Ġsynovial": 5133,
      "diaphragm": 5134,
      "Ġroentgenogram": 5135,
      "Ġmetaphysis": 5136,
      "Ġconfiguration": 5137,
      "Ġretention": 5138,
      "Ġnipple": 5139,
      "Ġopposite": 5140,
      "Ġsupernumerary": 5141,
      "19": 5142,
      "az": 5143,
      "by": 5144,
      "ball": 5145,
      "bles": 5146,
      "cosis": 5147,
      "cribed": 5148,
      "doc": 5149,
      "existing": 5150,
      "gru": 5151,
      "ground": 5152,
      "gang": 5153,
      "ha": 5154,
      "humeral": 5155,
      "ila": 5156,
      "iver": 5157,
      "iper": 5158,
      "iolog": 5159,
      "iques": 5160,
      "ky": 5161,
      "ked": 5162,
      "ker": 5163,
      "mri": 5164,
      "oen": 5165,
      "orectal": 5166,
      "pes": 5167,
      "ples": 5168,
      "uct": 5169,
      "vent": 5170,
      "vant": 5171,
      "wise": 5172,
      "Ġaa": 5173,
      "Ġadi": 5174,
      "Ġarachnoid": 5175,
      "Ġtc": 5176,
      "Ġtv": 5177,
      "Ġtau": 5178,
      "Ġtiny": 5179,
      "infe": 5180,
      "ray": 5181,
      "rage": 5182,
      "onic": 5183,
      "onatal": 5184,
      "Ġsoc": 5185,
      "ĠsÃ©": 5186,
      "Ġsans": 5187,
      "Ġthem": 5188,
      "Ġcup": 5189,
      "Ġcage": 5190,
      "Ġol": 5191,
      "reflective": 5192,
      "tigu": 5193,
      "enc": 5194,
      "Ġpv": 5195,
      "Ġlun": 5196,
      "Ġml": 5197,
      "Ġmt": 5198,
      "Ġwors": 5199,
      "Ġantic": 5200,
      "Ġanest": 5201,
      "hold": 5202,
      "horac": 5203,
      "Ġdrill": 5204,
      "arp": 5205,
      "sta": 5206,
      "stomy": 5207,
      "org": 5208,
      "Ġfs": 5209,
      "Ġfit": 5210,
      "Ġfact": 5211,
      "Ġbol": 5212,
      "Ġbene": 5213,
      "Ġbands": 5214,
      "omal": 5215,
      "isse": 5216,
      "asing": 5217,
      "phric": 5218,
      "uly": 5219,
      "Ġarte": 5220,
      "vea": 5221,
      "vex": 5222,
      "Ġnine": 5223,
      "Ġnone": 5224,
      "Ġnive": 5225,
      "diast": 5226,
      "ollen": 5227,
      "tracted": 5228,
      "cep": 5229,
      "cele": 5230,
      "cereb": 5231,
      "oste": 5232,
      "oscopic": 5233,
      "Ġhd": 5234,
      "Ġhf": 5235,
      "Ġhands": 5236,
      "Ġtha": 5237,
      "Ġconst": 5238,
      "Ġconcer": 5239,
      "Ġcontigu": 5240,
      "tency": 5241,
      "Ġctv": 5242,
      "Ġcompla": 5243,
      "Ġcompos": 5244,
      "Ġcomplication": 5245,
      "Ġdiag": 5246,
      "Ġdivision": 5247,
      "Ġparo": 5248,
      "Ġpacing": 5249,
      "Ġpatency": 5250,
      "Ġathe": 5251,
      "Ġradiotherapy": 5252,
      "ocrine": 5253,
      "etric": 5254,
      "opal": 5255,
      "oparietal": 5256,
      "Ġexperi": 5257,
      "Ġexost": 5258,
      "igmoid": 5259,
      "Ġasteri": 5260,
      "Ġcomputeris": 5261,
      "straction": 5262,
      "Ġspi": 5263,
      "Ġspan": 5264,
      "Ġsparing": 5265,
      "Ġproper": 5266,
      "Ġprojected": 5267,
      "chis": 5268,
      "Ġdemonstration": 5269,
      "odes": 5270,
      "Ġcoronoid": 5271,
      "Ġdisse": 5272,
      "Ġneonatal": 5273,
      "rosseous": 5274,
      "Ġadc": 5275,
      "Ġadductor": 5276,
      "Ġprec": 5277,
      "Ġtranso": 5278,
      "gency": 5279,
      "Ġlowdensity": 5280,
      "Ġjaw": 5281,
      "Ġintersection": 5282,
      "Ġinterphalangeal": 5283,
      "Ġangioplasty": 5284,
      "Ġtransducer": 5285,
      "Ġperone": 5286,
      "Ġintrauterine": 5287,
      "Ġperibron": 5288,
      "Ġrm": 5289,
      "Ġdistant": 5290,
      "Ġinflow": 5291,
      "Ġsurfaces": 5292,
      "Ã©rÃ©": 5293,
      "Ġpulp": 5294,
      "Ġrod": 5295,
      "Ġrost": 5296,
      "Ġhemat": 5297,
      "Ġhemothorax": 5298,
      "Ġcover": 5299,
      "Ġcours": 5300,
      "Ġcovered": 5301,
      "Ġfovea": 5302,
      "Ġ57": 5303,
      "Ġ59": 5304,
      "opharyngeal": 5305,
      "Ġhyperpl": 5306,
      "Ġhypertension": 5307,
      "Ġcavit": 5308,
      "Ġcavitation": 5309,
      "aris": 5310,
      "Ġmanually": 5311,
      "struct": 5312,
      "Ġ64": 5313,
      "Ġ67": 5314,
      "Ġshrin": 5315,
      "Ġsharp": 5316,
      "Ġcystogram": 5317,
      "dete": 5318,
      "illes": 5319,
      "Ġhighintensity": 5320,
      "Ġlonger": 5321,
      "Ġlongus": 5322,
      "Ġoccur": 5323,
      "Ġtwin": 5324,
      "Ġimpaction": 5325,
      "valvular": 5326,
      "Ġsegmentation": 5327,
      "Ġdensities": 5328,
      "Ġgradi": 5329,
      "Ġosteophy": 5330,
      "Ġosteonecrosis": 5331,
      "Ġapprec": 5332,
      "Ġ78": 5333,
      "vidual": 5334,
      "Ġtraver": 5335,
      "Ġparathyroid": 5336,
      "Ġparagang": 5337,
      "Ġheterotopic": 5338,
      "Ġterat": 5339,
      "Ġmarks": 5340,
      "Ġpneumoc": 5341,
      "plenic": 5342,
      "max": 5343,
      "Ġclosed": 5344,
      "Ġinsuff": 5345,
      "Ġextrahepatic": 5346,
      "Ġextradural": 5347,
      "Ġhips": 5348,
      "Ġcircular": 5349,
      "Ġepis": 5350,
      "Ġchor": 5351,
      "isting": 5352,
      "Ġmainly": 5353,
      "Ġinterosseous": 5354,
      "Ġperiportal": 5355,
      "Ġabscesses": 5356,
      "Ġprocessus": 5357,
      "Ġglands": 5358,
      "Ġswollen": 5359,
      "ratrial": 5360,
      "Ġcauses": 5361,
      "Ġinflamed": 5362,
      "Ġhypodensity": 5363,
      "Ġtips": 5364,
      "Ġprostatic": 5365,
      "Ġtracts": 5366,
      "Ġovary": 5367,
      "Ġretur": 5368,
      "Ġlocations": 5369,
      "Ġleading": 5370,
      "Ġparasagittal": 5371,
      "Ġlayers": 5372,
      "Ġdislocated": 5373,
      "Ġ2013": 5374,
      "Ġ2016": 5375,
      "Ã¨me": 5376,
      "Ġcommissure": 5377,
      "Ġallograft": 5378,
      "Ġhemorrhagic": 5379,
      "Ġamp": 5380,
      "Ġavm": 5381,
      "Ġsimult": 5382,
      "Ġmolars": 5383,
      "Ġpedun": 5384,
      "Ġreformation": 5385,
      "Ġfdgpet": 5386,
      "Ġinclude": 5387,
      "Ġradiologic": 5388,
      "Ġcontinuity": 5389,
      "Ġlimited": 5390,
      "Ġellip": 5391,
      "Ġexclusion": 5392,
      "Ġpathologic": 5393,
      "Ġtesticular": 5394,
      "Ġreprin": 5395,
      "Ġreport": 5396,
      "Ġslit": 5397,
      "Ġseparated": 5398,
      "Ġpasses": 5399,
      "Ġoccluder": 5400,
      "Ġtraumatic": 5401,
      "urgical": 5402,
      "Ġnuclear": 5403,
      "Ġcannot": 5404,
      "Ġimproved": 5405,
      "ĠÎ±": 5406,
      "hyoid": 5407,
      "Ġfaint": 5408,
      "Ġcorrected": 5409,
      "Ġglobus": 5410,
      "Ġrestoration": 5411,
      "Ġsubsequently": 5412,
      "Ġmagnified": 5413,
      "Ġsystole": 5414,
      "Ġsituated": 5415,
      "Ġpyelography": 5416,
      "Ġmeningioma": 5417,
      "Ġindividual": 5418,
      "Ġremained": 5419,
      "Ġinfarcts": 5420,
      "Ġtriangular": 5421,
      "Ġdysplastic": 5422,
      "Ġpubis": 5423,
      "Ġpubic": 5424,
      "Ġdownward": 5425,
      "Ġdegeneration": 5426,
      "Ġdiastolic": 5427,
      "Ġhemispheres": 5428,
      "angioma": 5429,
      "ĠhÃ©tÃ©": 5430,
      "Ġobstructing": 5431,
      "Ġsulcus": 5432,
      "Ġsulci": 5433,
      "attenuated": 5434,
      "Ġdefinite": 5435,
      "Ġlipoma": 5436,
      "Ġperinephric": 5437,
      "Ġextrem": 5438,
      "Ġpremolars": 5439,
      "Ġwound": 5440,
      "graphie": 5441,
      "Ġosteopenia": 5442,
      "Ġmpr": 5443,
      "Ġdelineation": 5444,
      "Ġsuvmax": 5445,
      "Ġinterpretation": 5446,
      "Ġganglion": 5447,
      "Ġbullosa": 5448,
      "Ġcombination": 5449,
      "rogÃ¨ne": 5450,
      "Ġaccompanying": 5451,
      "Ġlingual": 5452,
      "Ġlucency": 5453,
      "Ġbmode": 5454,
      "Ġhollow": 5455,
      "Ġepiphysis": 5456,
      "Ġlmca": 5457,
      "Ġwaters": 5458,
      "Ġprofile": 5459,
      "Ġsternoclavicular": 5460,
      "Ġpowerpoint": 5461,
      "herical": 5462,
      "titution": 5463,
      "opacity": 5464,
      "Ġpropria": 5465,
      "Ġposteromedial": 5466,
      "Ġemergency": 5467,
      "Ġhypoechogenic": 5468,
      "Ġhypothalamus": 5469,
      "Ġdiscontinuity": 5470,
      "oureth": 5471,
      "onodular": 5472,
      "Ġvasculature": 5473,
      "Ġpostgadolinium": 5474,
      "Ġantibiotic": 5475,
      "Ġvarices": 5476,
      "Ġretina": 5477,
      "Ġreticulonodular": 5478,
      "Ġijv": 5479,
      "Ġhepatis": 5480,
      "Ġexpand": 5481,
      "Ġflank": 5482,
      "Ġthyro": 5483,
      "Ġatypical": 5484,
      "Ġdischarge": 5485,
      "ffluorodeoxyglucose": 5486,
      "Ġpersistence": 5487,
      "Ġspecimen": 5488,
      "Ġtamponade": 5489,
      "inferior": 5490,
      "Ġbeneath": 5491,
      "Ġniveau": 5492,
      "Ġcontiguous": 5493,
      "Ġcomputerised": 5494,
      "Ġappreciated": 5495,
      "Ġteratoma": 5496,
      "Ġreprinted": 5497,
      "ĠhÃ©tÃ©rogÃ¨ne": 5498,
      "14": 5499,
      "16": 5500,
      "17": 5501,
      "23": 5502,
      "64": 5503,
      "bas": 5504,
      "bru": 5505,
      "brain": 5506,
      "cope": 5507,
      "came": 5508,
      "dal": 5509,
      "duction": 5510,
      "eu": 5511,
      "gy": 5512,
      "gre": 5513,
      "gus": 5514,
      "gent": 5515,
      "ius": 5516,
      "ived": 5517,
      "long": 5518,
      "losed": 5519,
      "lvis": 5520,
      "lith": 5521,
      "mis": 5522,
      "mulation": 5523,
      "natal": 5524,
      "ola": 5525,
      "ores": 5526,
      "oventricular": 5527,
      "pin": 5528,
      "pne": 5529,
      "pig": 5530,
      "pond": 5531,
      "rt": 5532,
      "rins": 5533,
      "sho": 5534,
      "sized": 5535,
      "tory": 5536,
      "thesis": 5537,
      "uk": 5538,
      "uous": 5539,
      "vulus": 5540,
      "with": 5541,
      "yse": 5542,
      "zer": 5543,
      "Ġax": 5544,
      "Ġaqu": 5545,
      "Ġaud": 5546,
      "Ġakines": 5547,
      "Ġtape": 5548,
      "Ġtympanic": 5549,
      "inti": 5550,
      "Ġsit": 5551,
      "Ġsolution": 5552,
      "Ġsizes": 5553,
      "Ġcc": 5554,
      "Ġcp": 5555,
      "Ġcure": 5556,
      "Ġcru": 5557,
      "Ġcreated": 5558,
      "Ġcuff": 5559,
      "aled": 5560,
      "Ġoph": 5561,
      "ream": 5562,
      "tia": 5563,
      "tib": 5564,
      "entes": 5565,
      "enced": 5566,
      "Ġlt": 5567,
      "Ġlin": 5568,
      "Ġlca": 5569,
      "Ġlux": 5570,
      "ridi": 5571,
      "Ġmb": 5572,
      "Ġmf": 5573,
      "Ġmis": 5574,
      "Ġmer": 5575,
      "Ġmsec": 5576,
      "Ġdog": 5577,
      "arus": 5578,
      "stal": 5579,
      "stream": 5580,
      "orphic": 5581,
      "itory": 5582,
      "Ġfac": 5583,
      "Ġfran": 5584,
      "Ġfung": 5585,
      "edia": 5586,
      "Ġbri": 5587,
      "Ġbig": 5588,
      "Ġbir": 5589,
      "Ġbrid": 5590,
      "omastoid": 5591,
      "ulating": 5592,
      "ulitis": 5593,
      "Ġrele": 5594,
      "Ġread": 5595,
      "Ġrequ": 5596,
      "Ġrefle": 5597,
      "Ġnan": 5598,
      "Ġnor": 5599,
      "Ġnet": 5600,
      "Ġvic": 5601,
      "Ġvsd": 5602,
      "Ġejection": 5603,
      "lae": 5604,
      "latÃ©": 5605,
      "Ġlegen": 5606,
      "dition": 5607,
      "atine": 5608,
      "ceal": 5609,
      "ctable": 5610,
      "Ġdetail": 5611,
      "pelvis": 5612,
      "Ġcomet": 5613,
      "Ġconfined": 5614,
      "Ġconvex": 5615,
      "Ġcondition": 5616,
      "tento": 5617,
      "Ġscia": 5618,
      "Ġrare": 5619,
      "Ġcompari": 5620,
      "Ġcompens": 5621,
      "Ġdivided": 5622,
      "Ġpad": 5623,
      "Ġattem": 5624,
      "Ġatlas": 5625,
      "ments": 5626,
      "Ġradiogram": 5627,
      "Ġradiof": 5628,
      "acia": 5629,
      "thir": 5630,
      "Ġsuff": 5631,
      "ils": 5632,
      "iline": 5633,
      "ocyt": 5634,
      "opia": 5635,
      "opontine": 5636,
      "undum": 5637,
      "ineral": 5638,
      "Ġspic": 5639,
      "Ġspac": 5640,
      "Ġproven": 5641,
      "Ġproduc": 5642,
      "Ġlap": 5643,
      "tate": 5644,
      "Ġwhat": 5645,
      "yered": 5646,
      "yema": 5647,
      "Ġposterio": 5648,
      "Ġcate": 5649,
      "perfusion": 5650,
      "Ġstanding": 5651,
      "lug": 5652,
      "Ġangles": 5653,
      "otom": 5654,
      "othoracic": 5655,
      "otympanic": 5656,
      "obil": 5657,
      "oblastoma": 5658,
      "land": 5659,
      "Ġaltern": 5660,
      "Ġpreseptal": 5661,
      "ifying": 5662,
      "Ġformed": 5663,
      "ially": 5664,
      "ardized": 5665,
      "Ġcoll": 5666,
      "Ġcolored": 5667,
      "Ġjuly": 5668,
      "Ġkin": 5669,
      "Ġbead": 5670,
      "Ġbecame": 5671,
      "Ġupward": 5672,
      "Ġupright": 5673,
      "Ġinterrupted": 5674,
      "Ġplayer": 5675,
      "Ġtransabdominal": 5676,
      "quence": 5677,
      "dering": 5678,
      "Ġintraocular": 5679,
      "Ġintraarticular": 5680,
      "Ġperihilar": 5681,
      "Ġmultidete": 5682,
      "Ġrc": 5683,
      "Ġinfusion": 5684,
      "Ġcalf": 5685,
      "Ġcaliper": 5686,
      "Ġpreserved": 5687,
      "Ġhoff": 5688,
      "apillary": 5689,
      "Ġhemop": 5690,
      "âĢħ": 5691,
      "Ġreduc": 5692,
      "Ġversion": 5693,
      "Ġtumors": 5694,
      "Ġcalculation": 5695,
      "Ġunits": 5696,
      "Ġuniform": 5697,
      "Ġuniver": 5698,
      "Ġfold": 5699,
      "Ġmetaphyseal": 5700,
      "Ġcmr": 5701,
      "Ġcecum": 5702,
      "Ġ66": 5703,
      "Ġshallow": 5704,
      "Ġbetter": 5705,
      "Ġventi": 5706,
      "ughter": 5707,
      "Ġfeed": 5708,
      "Ġdistally": 5709,
      "Ġhighgrade": 5710,
      "Ġatrioventricular": 5711,
      "Ġfluidattenuated": 5712,
      "Ġcarb": 5713,
      "Ġcarm": 5714,
      "Ġcarina": 5715,
      "Ġporta": 5716,
      "Ġnotch": 5717,
      "Ġplanned": 5718,
      "Ġvisce": 5719,
      "Ġgrad": 5720,
      "odense": 5721,
      "Ġnoncontras": 5722,
      "Ġosteoid": 5723,
      "Ġcompletion": 5724,
      "Ġ71": 5725,
      "Ġ72": 5726,
      "Ġ73": 5727,
      "Ġthrombosed": 5728,
      "Ġthrombolysis": 5729,
      "Ġretropharyngeal": 5730,
      "Ġmarker": 5731,
      "foram": 5732,
      "Ġpneumo": 5733,
      "Ġtubal": 5734,
      "Ġopacified": 5735,
      "Ġblines": 5736,
      "Ġblush": 5737,
      "Ġuretero": 5738,
      "Ġdaughter": 5739,
      "Ġcompressive": 5740,
      "Ġdescribed": 5741,
      "Ġinitiation": 5742,
      "Ġoriented": 5743,
      "Ġintens": 5744,
      "Ġtracing": 5745,
      "Ġtraced": 5746,
      "Ġloos": 5747,
      "vicular": 5748,
      "Ġ106": 5749,
      "Ġcholec": 5750,
      "Ġrectang": 5751,
      "ynthesis": 5752,
      "Ġtibio": 5753,
      "endocrine": 5754,
      "Ġqual": 5755,
      "Ġstents": 5756,
      "Ġinteratrial": 5757,
      "Ġcrossed": 5758,
      "Ġ80": 5759,
      "Ġvolvulus": 5760,
      "Ġcurves": 5761,
      "Ġsequences": 5762,
      "Ġpericardium": 5763,
      "Ġhaz": 5764,
      "ulations": 5765,
      "Ġtrte": 5766,
      "aryng": 5767,
      "Ġcrani": 5768,
      "Ġcranio": 5769,
      "logy": 5770,
      "Ġembolus": 5771,
      "Ġhyperost": 5772,
      "Ġnearly": 5773,
      "Ġurethrogram": 5774,
      "Ġrvot": 5775,
      "Ġago": 5776,
      "Ġinjured": 5777,
      "Ġsynch": 5778,
      "Ġsystemic": 5779,
      "Ġlocalization": 5780,
      "Ġleads": 5781,
      "Ġcorresponds": 5782,
      "Ġmyoc": 5783,
      "Ġmicrocalc": 5784,
      "Ġ05": 5785,
      "Ġ08": 5786,
      "Ġ09": 5787,
      "Ġstate": 5788,
      "Ġstaining": 5789,
      "Ġ2011": 5790,
      "Ġ2014": 5791,
      "glome": 5792,
      "Ġinfiltrations": 5793,
      "Ġavoid": 5794,
      "Ġarthritis": 5795,
      "Ġileocolic": 5796,
      "Ġsuprarenal": 5797,
      "Ġinverted": 5798,
      "Ġevaluated": 5799,
      "Ġevaluate": 5800,
      "Ġtibialis": 5801,
      "Ġneuroendocrine": 5802,
      "Ġincluded": 5803,
      "ship": 5804,
      "Ġlimbs": 5805,
      "Ġexcretion": 5806,
      "ofib": 5807,
      "Ġextrins": 5808,
      "Ġcoiled": 5809,
      "appearing": 5810,
      "Ġillustration": 5811,
      "Ġaugment": 5812,
      "Ġaugu": 5813,
      "rodorsal": 5814,
      "Ġepidermoid": 5815,
      "Ġnuclei": 5816,
      "Ġvariation": 5817,
      "pecific": 5818,
      "Ġpossibility": 5819,
      "Ġfragments": 5820,
      "day": 5821,
      "Ġturb": 5822,
      "Ġmammary": 5823,
      "ĠÎ¼m": 5824,
      "Ġenthes": 5825,
      "Ã©rieur": 5826,
      "Ġillustrated": 5827,
      "hyper": 5828,
      "Ġmultiloculated": 5829,
      "Ġbackground": 5830,
      "Ġreplaced": 5831,
      "Ġclassified": 5832,
      "Ġfloating": 5833,
      "Ġlabeled": 5834,
      "Ġmagnification": 5835,
      "Ġfalx": 5836,
      "Ġremaining": 5837,
      "Ġcementoen": 5838,
      "ĠÃ©cho": 5839,
      "Ġbubbles": 5840,
      "icient": 5841,
      "Ġabdominis": 5842,
      "Ġstandardized": 5843,
      "Ġtransplantation": 5844,
      "Ġfluorescence": 5845,
      "ruption": 5846,
      "Ġestim": 5847,
      "Ġstead": 5848,
      "Ġempyema": 5849,
      "Ġcharacteristics": 5850,
      "Ġextremity": 5851,
      "Ġwould": 5852,
      "Ġsubmucosa": 5853,
      "ĠflÃ¨": 5854,
      "Ġevent": 5855,
      "Ġclivus": 5856,
      "Ġbroad": 5857,
      "Ġbroken": 5858,
      "Ġcerebellopontine": 5859,
      "Ġfrontoparietal": 5860,
      "Ġvasogenic": 5861,
      "Ġadhesion": 5862,
      "Ġosteosynthesis": 5863,
      "Ġbulbar": 5864,
      "Ġaccompanied": 5865,
      "Ġterri": 5866,
      "Ġwedge": 5867,
      "orbital": 5868,
      "Ġresemb": 5869,
      "Ġchondro": 5870,
      "Ġepicond": 5871,
      "Ġhistopathology": 5872,
      "Ġsubacute": 5873,
      "Ġepigastric": 5874,
      "Ġsteroids": 5875,
      "Ġquantif": 5876,
      "Ġsmv": 5877,
      "Ġwhereas": 5878,
      "Ġresolved": 5879,
      "Ġmanifestation": 5880,
      "Ġstabil": 5881,
      "Ġhippocampal": 5882,
      "Ġcrescent": 5883,
      "Ġlittle": 5884,
      "Ġfinger": 5885,
      "Ġbursa": 5886,
      "Ġreference": 5887,
      "Ġcorneal": 5888,
      "Ġstromal": 5889,
      "Ġunusual": 5890,
      "Ġparticularly": 5891,
      "Ġneurological": 5892,
      "Ġelongated": 5893,
      "Ġlordosis": 5894,
      "Ġanimal": 5895,
      "Ġventrodorsal": 5896,
      "Ġeasily": 5897,
      "Ġfornical": 5898,
      "Ġmetatarsal": 5899,
      "Ġnonspecific": 5900,
      "abolism": 5901,
      "Ġosteoporosis": 5902,
      "diaphragmatic": 5903,
      "ĠsÃ©quence": 5904,
      "encies": 5905,
      "Ġdiagonal": 5906,
      "Ġtransoesophageal": 5907,
      "Ġgradient": 5908,
      "Ġsimultaneous": 5909,
      "Ġexpanded": 5910,
      "pnea": 5911,
      "Ġaqued": 5912,
      "Ġauditory": 5913,
      "Ġophthal": 5914,
      "entesis": 5915,
      "Ġnetwork": 5916,
      "Ġlegend": 5917,
      "Ġcomparison": 5918,
      "Ġradiofrequency": 5919,
      "ilinear": 5920,
      "Ġmultidetector": 5921,
      "Ġhyperostosis": 5922,
      "Ġmicrocalcification": 5923,
      "Ġaugust": 5924,
      "Ġcementoenamel": 5925,
      "50": 5926,
      "93": 5927,
      "ay": 5928,
      "aires": 5929,
      "cti": 5930,
      "dl": 5931,
      "faction": 5932,
      "femoral": 5933,
      "gory": 5934,
      "gÃ¨ne": 5935,
      "hl": 5936,
      "hr": 5937,
      "hns": 5938,
      "ii": 5939,
      "lighted": 5940,
      "mid": 5941,
      "minal": 5942,
      "nm": 5943,
      "nis": 5944,
      "nus": 5945,
      "oab": 5946,
      "pll": 5947,
      "rho": 5948,
      "rus": 5949,
      "slic": 5950,
      "tar": 5951,
      "tub": 5952,
      "ught": 5953,
      "uodenal": 5954,
      "vf": 5955,
      "vac": 5956,
      "vity": 5957,
      "wan": 5958,
      "ythe": 5959,
      "Ã³": 5960,
      "ĠĠ": 5961,
      "Ġtm": 5962,
      "Ġtet": 5963,
      "Ġtace": 5964,
      "Ġtight": 5965,
      "inance": 5966,
      "iness": 5967,
      "inosis": 5968,
      "ras": 5969,
      "rads": 5970,
      "Ġsqu": 5971,
      "Ġsagit": 5972,
      "teen": 5973,
      "Ġthey": 5974,
      "Ġcir": 5975,
      "Ġcem": 5976,
      "Ġcob": 5977,
      "ĠcÃ©rÃ©": 5978,
      "Ġole": 5979,
      "Ġove": 5980,
      "tition": 5981,
      "tibular": 5982,
      "ente": 5983,
      "Ġpes": 5984,
      "Ġpus": 5985,
      "Ġpmm": 5986,
      "Ġpenis": 5987,
      "Ġplug": 5988,
      "rography": 5989,
      "rooste": 5990,
      "Ġll": 5991,
      "Ġled": 5992,
      "Ġlas": 5993,
      "Ġlining": 5994,
      "rimal": 5995,
      "ride": 5996,
      "rique": 5997,
      "rilobular": 5998,
      "Ġmel": 5999
    },
    "merges": [
      "Ġ a",
      "Ġ t",
      "i n",
      "h e",
      "r a",
      "o n",
      "Ġ s",
      "t e",
      "Ġt he",
      "Ġ c",
      "a l",
      "Ġ o",
      "r e",
      "t i",
      "e n",
      "Ġ p",
      "Ġo f",
      "r o",
      "Ġ l",
      "r i",
      "Ġ m",
      "in g",
      "Ġ in",
      "Ġ w",
      "Ġa n",
      "h o",
      "Ġ d",
      "a r",
      "a n",
      "s t",
      "o r",
      "i t",
      "Ġ f",
      "e d",
      "Ġ b",
      "o m",
      "i s",
      "e r",
      "i c",
      "a s",
      "ti on",
      "e s",
      "Ġs ho",
      "Ġsho w",
      "Ġan d",
      "p h",
      "u l",
      "u s",
      "Ġa r",
      "en t",
      "g ra",
      "l e",
      "Ġ re",
      "Ġw it",
      "a g",
      "Ġwit h",
      "v e",
      "o gra",
      "te r",
      "te d",
      "g h",
      "Ġ i",
      "Ġ n",
      "Ġ v",
      "ro w",
      "Ġ e",
      "l a",
      "ogra ph",
      "i d",
      "Ġar row",
      "ra l",
      "Ġl e",
      "u m",
      "Ġshow ing",
      "i on",
      "f t",
      "d i",
      "o l",
      "t ra",
      "a t",
      "c e",
      "o s",
      "c t",
      "ti c",
      "gh t",
      "Ġi m",
      "u n",
      "Ġ ri",
      "Ġd e",
      "Ġ h",
      "p e",
      "a tion",
      "Ġle ft",
      "Ġri ght",
      "Ġim ag",
      "Ġt h",
      "Ġt o",
      "e l",
      "te ri",
      "u r",
      "Ġc om",
      "Ġc on",
      "te n",
      "Ġc t",
      "Ġs e",
      "ograph y",
      "Ġs c",
      "Ġ ra",
      "o w",
      "Ġcom p",
      "u re",
      "Ġd i",
      "Ġp a",
      "Ġa t",
      "Ġ g",
      "x i",
      "Ġa b",
      "m ent",
      "Ġra di",
      "Ġ he",
      "m on",
      "Ġ is",
      "Ġimag e",
      "a c",
      "l y",
      "t h",
      "Ġn o",
      "Ġs u",
      "a d",
      "m al",
      "c tion",
      "s e",
      "Ġsc an",
      "ar y",
      "teri or",
      "i l",
      "o c",
      "in al",
      "Ġ on",
      "Ġ en",
      "as s",
      "e t",
      "Ġc or",
      "ra n",
      "ro m",
      "ul ar",
      "ti ve",
      "Ġshow s",
      "o p",
      "Ġt om",
      "n e",
      "Ġe x",
      "an c",
      "i g",
      "te ral",
      "o us",
      "re s",
      "Ġa s",
      "Ġ 1",
      "i e",
      "Ġtom ography",
      "Ġm ass",
      "Ġcomp u",
      "Ġradi ograph",
      "d om",
      "un d",
      "y s",
      "st ra",
      "v er",
      "i r",
      "in e",
      "ri c",
      "a m",
      "i a",
      "Ġ 2",
      "Ġs p",
      "Ġc he",
      "Ġp o",
      "Ġa xi",
      "Ġcompu ted",
      "t al",
      "Ġl es",
      "Ġp ro",
      "u p",
      "Ġab dom",
      "ie w",
      "n al",
      "Ġa f",
      "c h",
      "g e",
      "Ġh y",
      "Ġv iew",
      "Ġaxi al",
      "Ġw as",
      "Ġl a",
      "Ġche st",
      "mon stra",
      "Ġles ion",
      "Ġde monstra",
      "Ġaf ter",
      "it y",
      "t a",
      "Ġcon tra",
      "Ġw h",
      "o d",
      "u e",
      "y e",
      "i te",
      "u t",
      "Ġa re",
      "Ġp os",
      "ter y",
      "t ing",
      "e m",
      "on e",
      "Ġc a",
      "p er",
      "Ġar tery",
      "Ġs t",
      "ic al",
      "Ġre s",
      "al l",
      "Ġf rom",
      "Ġpa ti",
      "o pe",
      "s ion",
      "Ġpati ent",
      "an ce",
      "i gh",
      "Ġcor on",
      "Ġ x",
      "l u",
      "ra tive",
      "l d",
      "w e",
      "f e",
      "Ġa p",
      "Ġm ri",
      "Ġan g",
      "ope rative",
      "l ow",
      "Ġd is",
      "Ġarrow s",
      "Ġb i",
      "Ġn e",
      "c ho",
      "o t",
      "Ġpo st",
      "Ġx ra",
      "o b",
      "as e",
      "es s",
      "h anc",
      "Ġxra y",
      "s o",
      "ro s",
      "a st",
      "d ing",
      "Ġ 3",
      "l an",
      "la teral",
      "Ġa l",
      "Ġp e",
      "Ġa d",
      "Ġsu b",
      "Ġp re",
      "l i",
      "ra c",
      "i f",
      "Ġm a",
      "Ġt ran",
      "a ted",
      "Ġcontra st",
      "Ġ ul",
      "g en",
      "a tic",
      "Ġm ed",
      "Ġf or",
      "ct ure",
      "i al",
      "Ġan terior",
      "te s",
      "Ġs ig",
      "Ġo b",
      "Ġb y",
      "ogra m",
      "r u",
      "te ro",
      "ar di",
      "ri or",
      "Ġc ol",
      "Ġl ow",
      "ve al",
      "Ġwh ite",
      "f f",
      "i b",
      "Ġ j",
      "Ġ k",
      "Ġb e",
      "Ġre veal",
      "Ġw e",
      "ar ge",
      "Ġ up",
      "Ġin ter",
      "Ġdemonstra ting",
      "Ġcoron al",
      "c on",
      "y m",
      "Ġp la",
      "a ro",
      "hanc ed",
      "Ġla teral",
      "Ġang i",
      "c k",
      "Ġl ob",
      "m o",
      "Ġul tra",
      "om a",
      "Ġabdom inal",
      "r on",
      "Ġtran s",
      "ye aro",
      "yearo ld",
      "en ce",
      "ent ric",
      "Ġo p",
      "Ġl i",
      "el l",
      "igh ted",
      "t o",
      "Ġa c",
      "in ed",
      "ag e",
      "q u",
      "i ti",
      "Ġm e",
      "Ġm ag",
      "d er",
      "id e",
      "p le",
      "Ġl arge",
      "Ġp er",
      "i z",
      "Ġpos terior",
      "Ġt um",
      "ve l",
      "us ion",
      "u c",
      "Ġin tra",
      "Ġimag ing",
      "Ġm ul",
      "or mal",
      "ag it",
      "an t",
      "Ġd u",
      "Ġb la",
      "ne tic",
      "on ance",
      "p o",
      "Ġw all",
      "Ġpe ri",
      "agit tal",
      "Ġse en",
      "Ġres onance",
      "Ġmag netic",
      "un g",
      "Ġbi lateral",
      "Ġmul ti",
      "Ġabdom en",
      "Ġ 4",
      "Ġ r",
      "Ġdi st",
      "Ġex ten",
      "if ic",
      "on g",
      "Ġc h",
      "Ġin f",
      "ic k",
      "Ġf ra",
      "Ġc al",
      "Ġno d",
      "Ġs ur",
      "Ã ©",
      "Ġs agittal",
      "Ġm id",
      "Ġe cho",
      "u b",
      "re n",
      "os is",
      "u d",
      "is s",
      "Ġp res",
      "Ġl ung",
      "Ġp el",
      "e ous",
      "s ity",
      "Ġf lu",
      "Ġre g",
      "i p",
      "Ġp ul",
      "or m",
      "Ġv entric",
      "Ġth ick",
      "Ġpel v",
      "Ġlow er",
      "y st",
      "er v",
      "Ġ ho",
      "Ġ ve",
      "Ġo r",
      "a p",
      "Ġ ro",
      "in t",
      "Ġm on",
      "Ġpost operative",
      "Ġme as",
      "a ce",
      "Ġa or",
      "Ġin c",
      "Ġhe m",
      "mal l",
      "Ġlob e",
      "Ġs mall",
      "Ġshow ed",
      "â Ģ",
      "ra in",
      "Ġt ho",
      "Ġc o",
      "re as",
      "Ġf o",
      "mon ary",
      "d ic",
      "Ġm ar",
      "ten t",
      "p os",
      "Ġre d",
      "we ighted",
      "so und",
      "Ġultra sound",
      "Ġ 5",
      "Ġb o",
      "Ġfra cture",
      "t ro",
      "Ġin v",
      "Ġb one",
      "Ġv er",
      "Ġle vel",
      "f orm",
      "Ġpul monary",
      "c ess",
      "Ġth is",
      "a te",
      "u ral",
      "Ġtum or",
      "Ġve in",
      "Ġcal c",
      "Ġ un",
      "Ġhe ad",
      "Ġf ol",
      "Ġm et",
      "l l",
      "o ph",
      "Ġc m",
      "Ġhy per",
      "Ġ us",
      "Ġo s",
      "Ġf em",
      "Ġreg ion",
      "Â ł",
      "Ġf i",
      "Ġca v",
      "j e",
      "Ġup per",
      "a ri",
      "am e",
      "Ġm an",
      "Ġc e",
      "Ġp anc",
      "st ru",
      "Ġl ine",
      "l o",
      "en ing",
      "Ġt iss",
      "Ġin to",
      "ic h",
      "Ġfol low",
      "o ral",
      "Ġthe re",
      "Ġwh ich",
      "Ġ 6",
      "ra m",
      "ar t",
      "Ġs h",
      "Ġth at",
      "Ġc ase",
      "Ġare a",
      "b le",
      "Ġc yst",
      "Ġb et",
      "Ġn ormal",
      "Ġen d",
      "Ġc an",
      "Ġmulti ple",
      "te b",
      "re d",
      "g ment",
      "ro und",
      "Ġwith in",
      "Ġli ver",
      "i ve",
      "Ġin dic",
      "Ġl oc",
      "we en",
      "Ġbet ween",
      "c c",
      "Ġ it",
      "Ġmon th",
      "Ġs o",
      "âĢ ī",
      "us c",
      "d e",
      "Ġv en",
      "Ġs in",
      "Ġin fe",
      "ra tion",
      "Ġdi la",
      "Ġcon s",
      "ific ation",
      "Ġs ide",
      "Ġcontra s",
      "ra x",
      "an g",
      "ur ing",
      "Ġsig n",
      "c ted",
      "Ġm usc",
      "Ġb rain",
      "pe rior",
      "il l",
      "q ue",
      "rac ic",
      "i m",
      "ys tic",
      "Ġmeas ure",
      "Ġl ym",
      "Ġtiss ue",
      "c op",
      "c ardi",
      "o id",
      "p la",
      "i tion",
      "v i",
      "Ġpro xi",
      "d der",
      "Ġm m",
      "ye ar",
      "u gh",
      "Ġe m",
      "ten hanced",
      "Ġsin us",
      "he ad",
      "Ġsu perior",
      "Ġma xi",
      "Ġpre operative",
      "Ġarrow head",
      "Ġf e",
      "Ġdemonstra tes",
      "fe ct",
      "Ġdist al",
      "Ġcontras tenhanced",
      "Ġh igh",
      "p res",
      "Ġf at",
      "Ġbla ck",
      "e ur",
      "om y",
      "Ġsig nal",
      "Ġpelv is",
      "Ġl ong",
      "u al",
      "Ġo cc",
      "re e",
      "Ġproxi mal",
      "Ġm o",
      "it al",
      "es oph",
      "Ġbo th",
      "a k",
      "Ġmonth s",
      "Ġa ir",
      "Ġt w",
      "um b",
      "Ġangi ography",
      "Ġver teb",
      "Ġso ft",
      "re at",
      "Ġim p",
      "Ġth ro",
      "Ġat ri",
      "ac h",
      "Ġcoron ary",
      "Ġap pe",
      "Ġm al",
      "Ġab s",
      "Ġflu id",
      "in ten",
      "Ġp le",
      "ia st",
      "Ġse ction",
      "Ġdu ct",
      "pos terior",
      "Ġc ar",
      "id ne",
      "v al",
      "Ġse gment",
      "ff usion",
      "Ġwe re",
      "m m",
      "Ġhy po",
      "Ġecho cardi",
      "stru ction",
      "eur ys",
      "ho ut",
      "Ġd en",
      "ar g",
      "Ġv al",
      "Ġno te",
      "Ġinv ol",
      "p atic",
      "Ġc ystic",
      "Ġp or",
      "Ġar teri",
      "Ġk idne",
      "k e",
      "Ġreveal ed",
      "f ined",
      "Ġno t",
      "Ġfem oral",
      "gen eous",
      "Ġp lan",
      "as c",
      "Ġv is",
      "Ġse p",
      "Ġventric le",
      "Ġ gra",
      "od en",
      "Ġinfe rior",
      "Ġlym ph",
      "Ġan tero",
      "Ġn on",
      "od y",
      "Ġal so",
      "l es",
      "Ġos te",
      "Ġcomp le",
      "Ġap p",
      "eurys m",
      "Ġ 7",
      "Ġj o",
      "v id",
      "c ed",
      "i ed",
      "ent ral",
      "tic al",
      "g in",
      "Ġsub c",
      "Ġc erv",
      "ance ment",
      "Ġthro ugh",
      "Ġsp ace",
      "d s",
      "y el",
      "Ġt ra",
      "Ġp an",
      "Ġp at",
      "Ġf ig",
      "ul a",
      "Ġre nal",
      "ol id",
      "Ġg ast",
      "m ed",
      "je ction",
      "Ġpa ra",
      "Ġmed iast",
      "Ġtw o",
      "h ancement",
      "Ġ ed",
      "re b",
      "Ġhe tero",
      "Ġt e",
      "Ġp h",
      "rom b",
      "ne um",
      "Ġmed ial",
      "he r",
      "Ġthick ening",
      "reas ed",
      "Ġth romb",
      "Ġw ell",
      "Ġwit hout",
      "at he",
      "Ġangi ogram",
      "c en",
      "v en",
      "Ġre tro",
      "Ġe ffusion",
      "at ing",
      "Ġsu p",
      "ir c",
      "Ġmar k",
      "Ġjo int",
      "f o",
      "t ation",
      "Ġp neum",
      "Ġb ow",
      "Ġinter nal",
      "Ġkidne y",
      "Ġb ody",
      "Ġen hancement",
      "a ran",
      "Ġt ub",
      "Ġop ac",
      "Ġb l",
      "is sion",
      "us e",
      "Ġen l",
      "ver se",
      "Ġbla dder",
      "a b",
      "Ġ year",
      "Ġne ck",
      "Ġce reb",
      "Ġantero posterior",
      "Ġm r",
      "Ġen hanced",
      "or y",
      "p l",
      "Ġmusc le",
      "Ġpan o",
      "m a",
      "t one",
      "Ġre c",
      "ros s",
      "Ġbow el",
      "aran ce",
      "v ing",
      "pe ct",
      "Ġsp ine",
      "Ġc athe",
      "Ġdi ff",
      "cop ic",
      "Ġ ure",
      "Ġc l",
      "ti d",
      "at h",
      "Ġimag es",
      "Ġaor tic",
      "ame ter",
      "ram ic",
      "cen ding",
      "te m",
      "Ġf ron",
      "ros is",
      "Ġcerv ical",
      "k s",
      "ti s",
      "Ġin s",
      "Ġd a",
      "Ġ2 0",
      "Ġaor ta",
      "ta ined",
      "con d",
      "Ġple ural",
      "c m",
      "Ġcomp res",
      "Ġdi ameter",
      "Ġcomple te",
      "ph y",
      "Ġde fect",
      "Ġpos ition",
      "in i",
      "Ġd es",
      "em a",
      "form ed",
      "Ġpano ramic",
      "l ic",
      "Ġt y",
      "an eous",
      "ograph ic",
      "Ġtrans verse",
      "Ġsur g",
      "Ġm es",
      "Ġse cond",
      "Ġcalc ification",
      "reat ment",
      "u tion",
      "Ġ u",
      "Ġshow n",
      "Ġi r",
      "Ġtho racic",
      "s al",
      "s ive",
      "Ġin iti",
      "Ġas s",
      "ll ary",
      "Ġatri um",
      "l en",
      "Ġo ri",
      "ti al",
      "an d",
      "Ġlesion s",
      "iz ed",
      "Ġpanc re",
      "um e",
      "Ġper formed",
      "s on",
      "x is",
      "Ġ und",
      "Ġin ten",
      "Ġf low",
      "Ġde p",
      "Ġex tra",
      "s c",
      "Ġcon f",
      "Ġhe patic",
      "Ġang le",
      "Ġpres ent",
      "o g",
      "ro tid",
      "Ġex am",
      "Ġnod ul",
      "Ġcathe ter",
      "d en",
      "g ular",
      "Ġt rac",
      "Ġp art",
      "ul l",
      "ter nal",
      "ol ar",
      "Ġh ip",
      "cho ic",
      "Ġpla in",
      "Ġmet ast",
      "p s",
      "Ġan eurysm",
      "ter n",
      "d le",
      "t ho",
      "Ġl o",
      "om e",
      "ig n",
      "hanc ing",
      "iti es",
      "Ġfollow up",
      "Ġiniti al",
      "as is",
      "Ġinc reased",
      "Ġund er",
      "Ġf oc",
      "Ġsho r",
      "os e",
      "Ġradi ol",
      "Ġsu g",
      "Ġman di",
      "v ic",
      "Ġ z",
      "Ġs ac",
      "Ġc irc",
      "Ġe p",
      "os s",
      "Ġ1 0",
      "Ġare as",
      "Ġappe arance",
      "u te",
      "Ġden sity",
      "Ġhetero geneous",
      "v ed",
      "in ation",
      "Ġo ut",
      "Ġf ir",
      "Ġhy p",
      "Ġst ru",
      "Ġreveal ing",
      "age al",
      "l oc",
      "Ġc ho",
      "Ġc entral",
      "Ġe vid",
      "il tra",
      "Ġinf iltra",
      "Ġmid dle",
      "esoph ageal",
      "Ġfir st",
      "b ular",
      "m ission",
      "n ormal",
      "p a",
      "t ure",
      "is tent",
      "Ġreveal s",
      "Ġflu o",
      "Ġplan e",
      "Ġfron tal",
      "Ġstru cture",
      "c a",
      "Ġcom mon",
      "Ġse ve",
      "se ction",
      "Ġdila ted",
      "Ġfig ure",
      "Ġmark ed",
      "Ġenl arg",
      "he s",
      "Ġb ron",
      "Ġab normal",
      "Ġpo int",
      "Ġcol on",
      "Ġcav ity",
      "inten se",
      "Ġenlarg ed",
      "c tive",
      "Ġre con",
      "Ġon e",
      "op s",
      "Ġpanc reas",
      "Ġval ve",
      "tone al",
      "Ġpancre atic",
      "c in",
      "ro id",
      "Ġre ct",
      "ce ment",
      "Ġg re",
      "il d",
      "ys is",
      "ld e",
      "Ġad j",
      "ib le",
      "Ġdiff use",
      "Ġd uring",
      "lde fined",
      "b er",
      "Ġ yel",
      "Ġs ten",
      "er ve",
      "ul ated",
      "teri s",
      "Ġdis pla",
      "ess el",
      "gen ic",
      "con tra",
      "Ġro ot",
      "Ġyel low",
      "d ed",
      "Ġp ar",
      "Ġf ib",
      "as al",
      "Ġi li",
      "ia ted",
      "iti s",
      "Ġverteb ral",
      "i st",
      "r n",
      "in d",
      "Ġca rotid",
      "Ġfor m",
      "ang es",
      "ho rax",
      "Ġre pres",
      "Ġn erve",
      "Ġv essel",
      "Ġultra son",
      "Ġven a",
      "Ġmeasure ment",
      "Ġimp lan",
      "a il",
      "g es",
      "l ine",
      "Ġt reatment",
      "ra p",
      "Ġus ing",
      "Ġinvol ving",
      "asc ular",
      "Ġs ame",
      "Ġc le",
      "ut aneous",
      "y n",
      "Ġ 9",
      "Ġt ib",
      "Ġf ill",
      "Ġb ran",
      "Ġma in",
      "Ġpelv ic",
      "Ġcav a",
      "ti f",
      "en d",
      "Ġd ue",
      "Ġb re",
      "ph al",
      "ag n",
      "mal e",
      "Ġmaxi llary",
      "Ġfe male",
      "p an",
      "on d",
      "Ġc ardi",
      "Ġal ong",
      "Ġventric ular",
      "Ġfi st",
      "Ġmediast inal",
      "Ġir re",
      "a tes",
      "t s",
      "Ġ qu",
      "Ġs tent",
      "ri s",
      "er y",
      "at oma",
      "pe ri",
      "teri c",
      "Ġas pect",
      "Ġcol le",
      "iz e",
      "Ġcons istent",
      "e p",
      "Ġin te",
      "Ġf in",
      "Ġed ema",
      "Ġass oc",
      "contra st",
      "ac ent",
      "Ġsur round",
      "Ġcan al",
      "id ed",
      "tra n",
      "Ġob tained",
      "Ġexten ding",
      "Ġfollow ing",
      "Ġsign ific",
      "umb ar",
      "Ġyear s",
      "Ġadj acent",
      "Ġrepres ent",
      "i ght",
      "u ation",
      "Ġc ross",
      "Ġen hancing",
      "Ġob s",
      "iz ation",
      "Ġperi p",
      "Ġmal e",
      "Ġinten sity",
      "Ġshor t",
      "Ġsignific ant",
      "he d",
      "Ġdis e",
      "Ġwe e",
      "Ġac ute",
      "Ġabs cess",
      "g m",
      "i x",
      "Ġ 8",
      "Ġt em",
      "um en",
      "ol ution",
      "Ġth in",
      "Ġch anges",
      "Ġfo ur",
      "Ġechocardi ography",
      "Ġgast ric",
      "Ġt ak",
      "ar d",
      "Ġv ol",
      "Ġ1 2",
      "Ġwe ighted",
      "erv ed",
      "Ġmeas uring",
      "Ġtho rax",
      "c y",
      "c om",
      "t in",
      "ve ment",
      "un t",
      "Ġk ne",
      "Ġfin ding",
      "b ol",
      "e choic",
      "Ġc ur",
      "Ġp se",
      "ri b",
      "Ġsp inal",
      "Ġpro cess",
      "Ġhy d",
      "Ġsurg ery",
      "Ġdise ase",
      "p on",
      "Ġd o",
      "Ġst om",
      "Ġcolle ction",
      "a ph",
      "i le",
      "o ur",
      "Ġo ver",
      "Ġw el",
      "Ġdi agn",
      "Ġhe rn",
      "Ġj u",
      "Ġit s",
      "Ġconf ir",
      "Ġbron ch",
      "Ġassoc iated",
      "Ġa xis",
      "in es",
      "Ġc ell",
      "Ġexten sive",
      "Ġpres ence",
      "cin oma",
      "rap y",
      "Ġstom ach",
      "Ġs ize",
      "ar row",
      "Ġi v",
      "un ction",
      "Ġh as",
      "Ġse qu",
      "Ġdis c",
      "Ġad mission",
      "ren ch",
      "Ġseve re",
      "Ġbre ast",
      "s p",
      "Ġs ite",
      "re nal",
      "Ġf la",
      "Ġ1 5",
      "Ġpe ric",
      "Ġobs erved",
      "Ġkne e",
      "t y",
      "ra te",
      "Ġh a",
      "am ber",
      "Ġsp len",
      "Ġindic ates",
      "Ġph ase",
      "Ġrecon struction",
      "Ġili ac",
      "Ġtak en",
      "o th",
      "Ġn arrow",
      "ardi al",
      "Ġhem atoma",
      "Ġsten osis",
      "Ġpse ud",
      "i re",
      "l as",
      "n ess",
      "Ġd or",
      "om an",
      "Ġocc l",
      "in um",
      "Ġs olid",
      "re ct",
      "Ġin jection",
      "Ġd op",
      "ul ation",
      "ia te",
      "fe ren",
      "Ġven ous",
      "Ġarrowhead s",
      "pl er",
      "Ġtem po",
      "y ing",
      "z ed",
      "Ġa round",
      "Ġw oman",
      "la tion",
      "Ġsc re",
      "Ġg lan",
      "Ġcor d",
      "Ġdemonstra ted",
      "Ġirre gular",
      "en ted",
      "Ġm ild",
      "Ġpa rench",
      "ven ous",
      "Ġori gin",
      "Ġcle ar",
      "c al",
      "i o",
      "ra gm",
      "Ġp et",
      "Ġl en",
      "Ġl ig",
      "Ġradi ography",
      "Ġmeasure d",
      "Ġverteb ra",
      "Ġtub e",
      "Ġexam ination",
      "Ġdop pler",
      "f ace",
      "t her",
      "Ġt r",
      "ra ch",
      "Ġs w",
      "Ġw ho",
      "Ġ1 8",
      "Ġtrac he",
      "Ġevid ence",
      "Ġfluo ros",
      "ra t",
      "en teric",
      "Ġm ic",
      "Ġi l",
      "Ġri b",
      "et al",
      "Ġho mo",
      "lo od",
      "Ġloc ated",
      "Ġvis ible",
      "Ġty pe",
      "Ġsug ges",
      "Ġwee ks",
      "he n",
      "Ġb on",
      "Ġb lood",
      "ary n",
      "op ath",
      "Ġap ical",
      "mo id",
      "Ġdila tation",
      "Ġcons olid",
      "Ġda y",
      "Ġform ation",
      "Ġfist ula",
      "peri toneal",
      "a ment",
      "a tive",
      "i um",
      "s ed",
      "en sion",
      "Ġl umbar",
      "Ġm od",
      "Ġf ree",
      "Ġas teris",
      "Ġmar gin",
      "Ġfem ur",
      "med iate",
      "Ġdes cending",
      "Ġradiol uc",
      "Ġwel ldefined",
      "Ġsequ ence",
      "Ġlig ament",
      "y roid",
      "Ġca us",
      "Ġpatient s",
      "if ied",
      "Ġexten sion",
      "Ġthromb us",
      "fo re",
      "Ġins er",
      "Ġcompres sion",
      "Ġsugges tive",
      "Ġc ran",
      "en e",
      "os ed",
      "Ġth ir",
      "Ġg as",
      "ac k",
      "il i",
      "il ar",
      "Ġcor tical",
      "Ġdu oden",
      "Ġfi x",
      "lo g",
      "vi ous",
      "Ġem bol",
      "Ġbl ue",
      "Ġsurround ing",
      "0 0",
      "Ġs k",
      "at ure",
      "Ġst ud",
      "Ġnod e",
      "Ġvis ual",
      "Ġapp ro",
      "Ġcereb ral",
      "b e",
      "y tic",
      "Ġs lic",
      "Ġl umen",
      "Ġg all",
      "Ġab o",
      "Ġres olution",
      "Ġob li",
      "Ġinf la",
      "Ġor b",
      "Ġor tho",
      "Ġhyper intense",
      "Ġpat tern",
      "Ġglan d",
      "d g",
      "p ho",
      "t um",
      "Ġ esoph",
      "Ġl v",
      "Ġsho ul",
      "us p",
      "ta ke",
      "Ġbi le",
      "Ġend os",
      "Ġhypo echoic",
      "Ġu ter",
      "Ġdep ic",
      "Ġfoc al",
      "Ġhyp oden",
      "r y",
      "Ġt ip",
      "or r",
      "Ġar ch",
      "Ġdi aph",
      "ad ow",
      "Ġpro st",
      "Ġbe fore",
      "Ġtum our",
      "Ġnod es",
      "Ġpar tial",
      "Ġultrason ography",
      "Ġconsolid ation",
      "u ction",
      "Ġs on",
      "ti l",
      "Ġth ree",
      "Ġno ted",
      "Ġhy pe",
      "Ġpor tal",
      "Ġfill ing",
      "Ġscre w",
      "Ġstud y",
      "f le",
      "y l",
      "Ġw id",
      "ho racic",
      "Ġd rain",
      "Ġb ut",
      "ul ari",
      "tic ular",
      "ran t",
      "Ġne ar",
      "Ġup take",
      "Ġsur face",
      "Ġsh adow",
      "Ġpor tion",
      "Ġsubc utaneous",
      "Ġtra ct",
      "ind ow",
      "Ġvol ume",
      "a ti",
      "p i",
      "y er",
      "in ing",
      "Ġw indow",
      "or der",
      "ul t",
      "Ġas cending",
      "Ġpro jection",
      "Ġz one",
      "Ġdor sal",
      "Ġoccl usion",
      "Ġthir d",
      "Ġobli que",
      "g th",
      "Ġth yroid",
      "Ġcon ta",
      "Ġg l",
      "Ġex ternal",
      "ys tem",
      "Ġne ed",
      "Ġpla te",
      "Ġmes enteric",
      "Ġnodul e",
      "Ġsplen ic",
      "a ct",
      "n ing",
      "er c",
      "gra de",
      "Ġi den",
      "el y",
      "ap ical",
      "Ġvessel s",
      "Ġcardi ac",
      "Ġqu ad",
      "Ġtempo ral",
      "opath y",
      "Ġesoph ag",
      "a ble",
      "m e",
      "Ġto tal",
      "Ġat ten",
      "Ġcor res",
      "Ġradiograph ic",
      "Ġ2 5",
      "ot horax",
      "Ġpla ced",
      "Ġechocardi ogram",
      "Ġarteri es",
      "Ġure th",
      "Ġbran ch",
      "w a",
      "Ġs ing",
      "Ġi i",
      "la vic",
      "Ġh ad",
      "Ġsc le",
      "Ġtran st",
      "gen ous",
      "Ġj unction",
      "Ġr v",
      "Ġabs ence",
      "Ġcar cinoma",
      "Ġmandi bular",
      "Ġstructure s",
      "orr h",
      "c ent",
      "l la",
      "m et",
      "p ical",
      "Ġa g",
      "Ġt im",
      "Ġt end",
      "Ġm at",
      "Ġin j",
      "it ud",
      "Ġb order",
      "Ġre mo",
      "Ġde fined",
      "Ġhe art",
      "uc ed",
      "ren t",
      "vi an",
      "Ġlong itud",
      "Ġortho p",
      "Ġlongitud inal",
      "o st",
      "Ġs yn",
      "Ġs ystem",
      "Ġo v",
      "en cy",
      "ro tic",
      "Ġre t",
      "ol ini",
      "ad olini",
      "Ġcol or",
      "Ġperi apical",
      "Ġdist ance",
      "Ġmid line",
      "Ġus ed",
      "Ġloc al",
      "Ġloc ation",
      "Ġarteri al",
      "Ġnodul es",
      "Ġmetast asis",
      "Ġslic e",
      "Ġtranst horacic",
      "b la",
      "p t",
      "v ascular",
      "ra ted",
      "ar s",
      "Ġf il",
      "Ġle ad",
      "ol ic",
      "Ġcon tro",
      "ad en",
      "Ġinf ar",
      "Ġecho genic",
      "Ġred uction",
      "Ġline ar",
      "Ġpara s",
      "Ġmandi ble",
      "Ġlen gth",
      "Ġbon y",
      "Ġshoul der",
      "Ġcorres pon",
      "a ter",
      "g i",
      "p tion",
      "Ġs ym",
      "al y",
      "Ġm y",
      "Ġm in",
      "teri zed",
      "ge al",
      "Ġgra ft",
      "Ġgast ro",
      "Ġmediast inum",
      "Ġte e",
      "Ġparench ym",
      "Ġmic ro",
      "Ġdiaph ragm",
      "Ġiden tif",
      "Ġorthop ant",
      "c he",
      "i an",
      "i que",
      "m s",
      "s ided",
      "Ġ 0",
      "he re",
      "Ġs ta",
      "Ġc en",
      "Ġo ld",
      "Ġl oss",
      "it u",
      "Ġe le",
      "la ted",
      "Ġla yer",
      "Ġbi ops",
      "Ġthick ness",
      "tin u",
      "Ġfinding s",
      "Ġendos copic",
      "Ġhypoden se",
      "Ġsing le",
      "e rate",
      "m um",
      "Ġt ri",
      "en ed",
      "Ġde c",
      "Ġh ist",
      "Ġth an",
      "ur s",
      "Ġpos tero",
      "Ġdis loc",
      "Ġne c",
      "Ġne u",
      "ub le",
      "Ġro und",
      "inten sity",
      "Ġcar til",
      "Ġinvol vement",
      "Ġ20 1",
      "Ġcho lan",
      "Ġasteris k",
      "f lu",
      "g l",
      "p lan",
      "v es",
      "y g",
      "Ã ¨",
      "he patic",
      "on ent",
      "on tal",
      "ho log",
      "Ġb all",
      "le en",
      "Ġto oth",
      "Ġcom m",
      "Ġcon d",
      "Ġcomp onent",
      "Ġhe al",
      "oc k",
      "Ġsp leen",
      "Ġca ud",
      "Ġal l",
      "ap ed",
      "Ġhem orrh",
      "Ġinv as",
      "vi ation",
      "phy se",
      "Ġinfiltra tion",
      "Ġperic ardial",
      "Ġinfla mm",
      "Ġcontro l",
      "w ard",
      "Ġa m",
      "Ġa v",
      "he ral",
      "ri z",
      "st ing",
      "Ġb ul",
      "Ġe ye",
      "Ġim mediate",
      "Ġres id",
      "li ght",
      "Ġpla cement",
      "Ġop tic",
      "ren ce",
      "Ġfo re",
      "Ġfi el",
      "Ġmaxi mum",
      "Ġsep tum",
      "Ġrec ur",
      "Ġdo uble",
      "Ġpseud o",
      "Ġfluoros copic",
      "Ġneed le",
      "Ġtend on",
      "a red",
      "Ġs im",
      "Ġo pe",
      "Ġf oss",
      "Ġb ase",
      "ct ing",
      "Ġ1 3",
      "ver y",
      "Ġpro t",
      "ch an",
      "Ġad en",
      "Ġob struction",
      "Ġtrans esophageal",
      "ell ar",
      "Ġintra venous",
      "cop y",
      "Ġmo re",
      "Ġretro peritoneal",
      "Ġty pical",
      "Ġesophag us",
      "bla dder",
      "Ġparenchym a",
      "Ġfoss a",
      "f ic",
      "m an",
      "Ġa mo",
      "Ġa ris",
      "Ġs ti",
      "Ġm it",
      "ed ing",
      "Ġar th",
      "Ġi le",
      "Ġpa in",
      "anc er",
      "Ġcompu terized",
      "Ġper fo",
      "Ġsubc la",
      "Ġopac ity",
      "Ġlo ops",
      "Ġcirc um",
      "Ġbiops y",
      "Ġcholan gi",
      "Ġresid ual",
      "g ital",
      "ri m",
      "Ġm em",
      "ar c",
      "tion al",
      "ur y",
      "Ġse le",
      "Ġg adolini",
      "op a",
      "Ġex pan",
      "Ġpre vious",
      "Ġnod ular",
      "âĢ Ĭ",
      "Ġindic ated",
      "Ġindic ating",
      "Ġsup ra",
      "Ġopac ities",
      "tran t",
      "Ġperip heral",
      "Ġnarrow ing",
      "ili ary",
      "Ġgall bladder",
      "Ġhype re",
      "Ġcorrespon ding",
      "Ġsubcla vian",
      "d u",
      "k ing",
      "s ing",
      "v entric",
      "Ġ ur",
      "Ġt ail",
      "in a",
      "Ġc ancer",
      "Ġl ines",
      "Ġm uc",
      "Ġm olar",
      "Ġin t",
      "Ġe f",
      "ct omy",
      "teri al",
      "mon th",
      "Ġst ri",
      "Ġad renal",
      "Ġlob es",
      "Ġop en",
      "Ġmon trant",
      "Ġretro grade",
      "sc an",
      "Ġquad rant",
      "Ġtim e",
      "riz ontal",
      "v is",
      "te x",
      "Ġp ol",
      "Ġin ver",
      "it ary",
      "gra m",
      "ce phal",
      "Ġg ro",
      "Ġhe ight",
      "ot he",
      "ell ing",
      "Ġho rizontal",
      "Ġtho rac",
      "Ġfo ram",
      "ari um",
      "Ġpneum othorax",
      "Ġure ter",
      "Ġmod erate",
      "Ġatten uation",
      "Ġinj ury",
      "b ran",
      "c hes",
      "f feren",
      "g res",
      "n er",
      "in ary",
      "re st",
      "ro us",
      "as es",
      "Ġe ar",
      "Ġat t",
      "Ġtom ographic",
      "Ġ1 1",
      "Ġmass ive",
      "Ġdis ten",
      "li ke",
      "Ġul n",
      "Ġinc is",
      "Ġrec o",
      "Ġimplan t",
      "Ġorthopant om",
      "Ġcartil age",
      "Ġamo unt",
      "m ension",
      "o on",
      "Ġa pe",
      "Ġp ed",
      "an eurysm",
      "Ġb le",
      "er s",
      "Ġre form",
      "ag inal",
      "Ġv ascular",
      "Ġe t",
      "Ġe val",
      "Ġg u",
      "Ġg round",
      "xi m",
      "ad e",
      "Ġ1 4",
      "Ġac c",
      "vel op",
      "Ġmusc les",
      "Ġatri al",
      "Ġlymph aden",
      "Ġpresent ation",
      "ull ary",
      "Ġgre en",
      "Ġtib ial",
      "Ġpet ct",
      "Ġcen ter",
      "Ġball oon",
      "ventric ular",
      "r um",
      "v as",
      "y ed",
      "on t",
      "Ġp ho",
      "ri al",
      "ri ght",
      "an terior",
      "er m",
      "Ġn asal",
      "Ġg i",
      "Ġg o",
      "op las",
      "Ġpost contrast",
      "Ġintra operative",
      "Ġr up",
      "Ġmo st",
      "Ġsep tal",
      "Ġnon contrast",
      "Ġthromb osis",
      "Ġda ys",
      "Ġtib ia",
      "rib ed",
      "Ġduoden um",
      "Ġappro xim",
      "Ġdisloc ation",
      "Ġneu ro",
      "Ġaris ing",
      "Ġmit ral",
      "Ġape x",
      "i ation",
      "o x",
      "u ter",
      "Ġs he",
      "Ġf dg",
      "Ġb rach",
      "Ġdi fferen",
      "ver teb",
      "Ġinc lu",
      "Ġhem it",
      "Ġun e",
      "Ġcyst s",
      "Ġapp en",
      "ced ure",
      "Ġradiol og",
      "Ġhyd ro",
      "Ġsk ull",
      "Ġvisual ized",
      "Ġparas ternal",
      "Ġef fect",
      "s h",
      "s us",
      "Ġt arg",
      "on es",
      "Ġthe rapy",
      "Ġp rim",
      "ri st",
      "st y",
      "Ġb as",
      "Ġb arium",
      "Ġde velop",
      "Ġcon tinu",
      "Ġg e",
      "Ġad di",
      "Ġli m",
      "Ġpres ented",
      "Ġvein s",
      "Ġsug ge",
      "Ġpoint s",
      "Ġgre ater",
      "Ġvertebra e",
      "Ġhomo geneous",
      "Ġpseudo aneurysm",
      "Ġmem bran",
      "Ġreco very",
      "Ġlymphaden opathy",
      "Ġrup ture",
      "Ġhemit horax",
      "Ġtarg et",
      "g aly",
      "l ite",
      "s f",
      "y le",
      "Ġa ce",
      "Ġs tra",
      "Ġc all",
      "Ġl ad",
      "st inal",
      "Ġb el",
      "ent al",
      "Ġe l",
      "at u",
      "tic ul",
      "un ic",
      "Ġex c",
      "anc y",
      "Ġpro gres",
      "ot omy",
      "Ġch amber",
      "Ġco ur",
      "ill ary",
      "hes is",
      "Ġju gular",
      "Ġsw elling",
      "Ġtrache a",
      "Ġfix ation",
      "Ġhemorrh age",
      "vas ation",
      "Ġapproxim ate",
      "Ġace ta",
      "n el",
      "o f",
      "p al",
      "t u",
      "u es",
      "in s",
      "Ġs light",
      "Ġd ys",
      "Ġf usion",
      "ch amber",
      "Ġla ter",
      "Ġne w",
      "Ġcol lateral",
      "Ġem physe",
      "Ġhern ia",
      "Ġfla ir",
      "Ġforam en",
      "g n",
      "j un",
      "w i",
      "Ġo ther",
      "Ġp rom",
      "Ġan at",
      "at us",
      "ct asis",
      "Ġde struction",
      "Ġde ep",
      "Ġpa p",
      "ac hed",
      "Ġex t",
      "Ġpro cedure",
      "Ġma terial",
      "Ġr ing",
      "pres sion",
      "Ġpat holog",
      "Ġcalcification s",
      "Ġextra vasation",
      "ome galy",
      "Ġbran ches",
      "aryn geal",
      "Ġembol ization",
      "Ġtee th",
      "Ġur inary",
      "1 2",
      "a pe",
      "c es",
      "m us",
      "Ġt es",
      "te red",
      "Ġthe se",
      "al am",
      "ti v",
      "ar ing",
      "an s",
      "st ation",
      "om et",
      "ul e",
      "ul us",
      "Ġre p",
      "at ory",
      "Ġradi al",
      "Ġsu per",
      "Ġon ly",
      "Ġas c",
      "stra tion",
      "Ġ3 5",
      "Ġco il",
      "Ġcalc ified",
      "Ġregion s",
      "Ġed ge",
      "ini mal",
      "Ġsurg ical",
      "Ġdispla cement",
      "Ġclear ly",
      "Ġmat ter",
      "othe rapy",
      "Ġprim ary",
      "Ġprom in",
      "o le",
      "Ġs us",
      "Ġs ix",
      "en hanced",
      "Ġp rior",
      "Ġd ra",
      "Ġb iliary",
      "om ed",
      "is e",
      "Ġv ia",
      "Ġv entral",
      "Ġle a",
      "ol og",
      "Ġde te",
      "Ġh u",
      "Ġct scan",
      "Ġdi ver",
      "Ġdi gital",
      "Ġcor tex",
      "Ġ2 2",
      "ap pe",
      "Ġmal ign",
      "Ġtub erc",
      "Ġrect um",
      "Ġconfir med",
      "Ġiv c",
      "Ġtr un",
      "Ġil lu",
      "usp id",
      "Ġov ari",
      "Ġcomm unic",
      "Ġperfo ration",
      "Ġa u",
      "Ġs l",
      "ro d",
      "Ġw rist",
      "Ġd ot",
      "Ġd ose",
      "or s",
      "Ġf ur",
      "le t",
      "ow n",
      "Ġat ro",
      "ly ing",
      "Ġradiograph s",
      "am m",
      "Ġles s",
      "Ġst ar",
      "Ġ3 0",
      "Ġmed ium",
      "Ġch a",
      "Ġlung s",
      "Ġbo y",
      "Ġmet ho",
      "Ġsep a",
      "sc ribed",
      "Ġlo op",
      "Ġabo ve",
      "Ġorb it",
      "met ric",
      "Ġsyn d",
      "Ġidentif ied",
      "Ġfiel d",
      "b re",
      "i ft",
      "p re",
      "p us",
      "s is",
      "t he",
      "Ġ ing",
      "Ġa ve",
      "Ġp ic",
      "Ġp ass",
      "Ġm inimal",
      "Ġf inal",
      "Ġf und",
      "Ġf ace",
      "as ia",
      "Ġn as",
      "Ġe ct",
      "Ġright sided",
      "Ġcon ne",
      "Ġpa ri",
      "Ġen c",
      "rom e",
      "Ġpo le",
      "one ph",
      "ast ric",
      "Ġma y",
      "gen e",
      "arge ment",
      "uc le",
      "Ġthick ened",
      "Ġho sp",
      "form ation",
      "Ġsh unt",
      "Ġocc lu",
      "Ġtra um",
      "Ġopac ification",
      "Ġenl argement",
      "Ġcereb ellar",
      "Ġ20 0",
      "Ġradioluc ent",
      "Ġcaus ing",
      "Ġdepic ting",
      "Ġureth ra",
      "Ġremo val",
      "Ġdec reased",
      "Ġcond yle",
      "Ġreform at",
      "Ġbel ow",
      "Ġapproximate ly",
      "d ural",
      "i es",
      "z ation",
      "ti re",
      "Ġb asal",
      "Ġe ro",
      "la p",
      "at ous",
      "os a",
      "Ġh r",
      "Ġh and",
      "ur g",
      "Ġpa tent",
      "Ġg a",
      "se qu",
      "Ġen tire",
      "Ġsig moid",
      "Ġinf ra",
      "iss ure",
      "pres sed",
      "Ġsegment s",
      "Ġcl in",
      "Ġcompres sing",
      "Ġsecond ary",
      "Ġexam ple",
      "Ġep id",
      "Ġcross section",
      "Ġcur ved",
      "Ġdiagn osis",
      "Ġdiagn osed",
      "Ġhern iation",
      "Ġju st",
      "Ġbronch us",
      "Ġinser tion",
      "Ġuter us",
      "lavic ular",
      "Ġfil m",
      "Ġpostero anterior",
      "Ġfore ign",
      "Ġgadolini um",
      "verteb ral",
      "Ġpromin ent",
      "Ġhosp ital",
      "m in",
      "u pe",
      "Ġ ic",
      "in ous",
      "Ġs ome",
      "re ase",
      "Ġl am",
      "Ġw here",
      "ve olar",
      "Ġn ucle",
      "Ġv ari",
      "Ġle ak",
      "Ġri m",
      "pe cted",
      "Ġpa te",
      "se ous",
      "ron ic",
      "Ġpostoperative ly",
      "Ġco upe",
      "Ġmar row",
      "art ment",
      "Ġsh ift",
      "Ġcan n",
      "Ġem ission",
      "Ġfat s",
      "Ġfoc i",
      "com p",
      "Ġil ldefined",
      "Ġcran ial",
      "Ġuter ine",
      "wa y",
      "Ġcaud al",
      "Ġsele ctive",
      "Ġpol y",
      "Ġinver sion",
      "Ġmembran e",
      "Ġpari etal",
      "f ul",
      "i en",
      "s ities",
      "u ted",
      "al e",
      "Ġm as",
      "ic le",
      "pe c",
      "Ġis o",
      "oc h",
      "oc ular",
      "Ġmass es",
      "Ġ2 4",
      "ite s",
      "Ġpos s",
      "ical ly",
      "Ġdis section",
      "mo st",
      "Ġperi toneal",
      "Ġr ca",
      "Ġfra gment",
      "ip ital",
      "Ġred uced",
      "Ġfracture s",
      "je ct",
      "Ġce ct",
      "Ġocc up",
      "Ġimp ro",
      "Ġappe ars",
      "Ġpat ch",
      "Ġradioluc ency",
      "Ġabo ut",
      "Ġdrain age",
      "Ġret inal",
      "Ġhypere choic",
      "Ġasc ites",
      "Ġdra w",
      "Ġtrun k",
      "Ġsynd rome",
      "bre viation",
      "Ġpic ture",
      "Ġfund us",
      "a u",
      "d a",
      "Ġ y",
      "Ġa ge",
      "Ġt ur",
      "in ant",
      "Ġc x",
      "Ġo val",
      "re ated",
      "ro de",
      "Ġl ytic",
      "Ġm amm",
      "it ron",
      "Ġf ail",
      "Ġre section",
      "at or",
      "un nel",
      "Ġde vic",
      "et us",
      "Ġ1 6",
      "Ġ2 1",
      "Ġhyper den",
      "Ġsign s",
      "Ġgra de",
      "ab dom",
      "Ġmetast atic",
      "Ġcirc le",
      "Ġinfiltra tes",
      "Ġwho le",
      "Ġorb ital",
      "Ġii i",
      "Ġinfar ction",
      "Ġhist ory",
      "Ġemphyse ma",
      "Ġatro phy",
      "Ġmetho d",
      "b ul",
      "c ing",
      "c us",
      "i lateral",
      "v aginal",
      "Ġ Î",
      "Ġ ent",
      "Ġt or",
      "Ġp al",
      "Ġin ta",
      "Ġw ire",
      "Ġan y",
      "om atic",
      "tra ction",
      "oc al",
      "ric uspid",
      "Ġ2 7",
      "Ġpro be",
      "Ġal veolar",
      "Ġlob ulated",
      "Ġintra hepatic",
      "Ã© ri",
      "Ġlevel s",
      "Ġhypo intense",
      "Ġmetast ases",
      "Ġmargin s",
      "Ġinser ted",
      "Ġinvas ion",
      "Ġble eding",
      "Ġeval uation",
      "Ġgo od",
      "Ġillu stra",
      "Ġfur ther",
      "Ġing u",
      "Ġave c",
      "Ġhr ct",
      "Ġinta ct",
      "1 0",
      "c cess",
      "c utaneous",
      "f ied",
      "g u",
      "g inal",
      "h y",
      "r Ã©",
      "on s",
      "Ġs mo",
      "Ġc ut",
      "Ġo ment",
      "Ġo uter",
      "Ġf a",
      "le x",
      "Ġre m",
      "Ġre pa",
      "um inal",
      "at al",
      "os um",
      "Ġsu ccess",
      "Ġscan s",
      "il ity",
      "Ġcor pus",
      "op ic",
      "ch n",
      "Ġca ps",
      "Ġk e",
      "Ġop g",
      "Ġac tive",
      "Ġbilateral ly",
      "Ġmulti loc",
      "Ġch an",
      "Ġch ronic",
      "Ġ5 0",
      "Ġver tical",
      "Ġlym pho",
      "Ġoste ol",
      "tone um",
      "Ġstri cture",
      "Ġpho t",
      "Ġcha rac",
      "Ġreformat ted",
      "sequ ent",
      "c le",
      "d m",
      "e al",
      "f low",
      "i oc",
      "i osis",
      "n o",
      "p ing",
      "r in",
      "u ated",
      "Ġt ricuspid",
      "he tic",
      "ro st",
      "Ġm i",
      "it ation",
      "Ġf etus",
      "Ġb ack",
      "is m",
      "us ed",
      "Ġre pla",
      "Ġre lation",
      "os al",
      "Ġde g",
      "Ġh um",
      "Ġcon to",
      "Ġsc o",
      "Ġra mus",
      "Ġdi ffusion",
      "Ġg y",
      "Ġcor re",
      "Ġ1 7",
      "Ġpo or",
      "Ġpos itron",
      "we ver",
      "Ġdis appe",
      "Ġma j",
      "Ġho wever",
      "dic ular",
      "Ġos s",
      "Ġhyp oplas",
      "Ġcho roid",
      "Ġhomo genous",
      "gl ass",
      "Ġinflamm ation",
      "Ġatt ached",
      "Ġorthopantom ogram",
      "Ġsugge sting",
      "Ġsus pected",
      "Ġdot ted",
      "Ġdevic e",
      "Ġingu inal",
      "a re",
      "c er",
      "c ran",
      "f in",
      "f usion",
      "p en",
      "y mal",
      "Ġa o",
      "Ġt erm",
      "he li",
      "Ġc b",
      "ro p",
      "ri es",
      "Ġan ti",
      "it heli",
      "is p",
      "Ġre la",
      "ter s",
      "ce m",
      "Ġde la",
      "Ġde form",
      "pe ctive",
      "Ġse t",
      "Ġsc ap",
      "Ġdi re",
      "ac tion",
      "Ġres ul",
      "Ġ4 0",
      "ap s",
      "asc ulari",
      "Ġte chn",
      "Ġwell c",
      "Ġcl ass",
      "Ġevid ent",
      "Ġrect us",
      "Ġrepresent s",
      "Ġfour th",
      "Ġconfir m",
      "Ġcell s",
      "Ġgl ob",
      "itu itary",
      "Ġnec rosis",
      "Ġimmediate ly",
      "Ġope ration",
      "Ġile um",
      "arc oma",
      "Ġear ly",
      "Ġuln ar",
      "Ġpap illary",
      "oneph rosis",
      "Ġero sion",
      "lap se",
      "Ġcx r",
      "a xi",
      "u ch",
      "w ent",
      "Ġa ch",
      "Ġs pect",
      "Ġc y",
      "en s",
      "en is",
      "Ġp ituitary",
      "Ġm ix",
      "Ġd one",
      "or tic",
      "Ġf issure",
      "Ġb and",
      "ph ysis",
      "ul d",
      "us sus",
      "Ġar tif",
      "gra phy",
      "row n",
      "di x",
      "di fied",
      "Ġh ilar",
      "Ġto ward",
      "Ġsc ar",
      "ac es",
      "Ġaxi llary",
      "Ġbi f",
      "Ġ3 8",
      "Ġpre dom",
      "Ġpre gn",
      "li p",
      "Ġob lite",
      "Ġac qu",
      "Ġac ross",
      "Ġdist rib",
      "Ġch ild",
      "Ġinc rease",
      "Ġfo und",
      "Ġfo ot",
      "stru cted",
      "Ġtiss ues",
      "pla sty",
      "Ġsinus es",
      "Ġsegment al",
      "Ġkidne ys",
      "Ġph al",
      "Ġsup p",
      "Ġunder went",
      "Ġsac ral",
      "Ġabnormal ity",
      "Ġfour chamber",
      "Ġfla p",
      "Ġha ve",
      "Ġcaus ed",
      "Ġscrew s",
      "Ġele v",
      "flu id",
      "Ġint ussus",
      "Ġgro up",
      "Ġshe ath",
      "Ġappen dix",
      "Ġdete cted",
      "Ġovari an",
      "abdom inal",
      "Ġrela tive",
      "Ġintussus ce",
      "a xis",
      "c ation",
      "i red",
      "n oid",
      "p at",
      "s ti",
      "t reatment",
      "u g",
      "Ġt unnel",
      "Ġs a",
      "Ġs tran",
      "Ġp un",
      "ri um",
      "ri tis",
      "Ġm ip",
      "Ġan om",
      "Ġd ro",
      "Ġd as",
      "ar cinoma",
      "it s",
      "Ġf lo",
      "Ġf etal",
      "Ġre st",
      "ation s",
      "Ġth igh",
      "el i",
      "Ġse e",
      "Ġra y",
      "Ġcomp ati",
      "Ġg ene",
      "Ġradi us",
      "Ġ1 9",
      "Ġcompu ter",
      "am ic",
      "Ġla b",
      "ta il",
      "Ġst one",
      "Ġres ult",
      "lu c",
      "we e",
      "Ġsub sequent",
      "Ġmag n",
      "Ġexten ds",
      "Ġsh ape",
      "Ġdila tion",
      "Ġmaxi lla",
      "Ġfe ature",
      "ven tional",
      "ab breviation",
      "ume ral",
      "Ġdispla ced",
      "Ġroot s",
      "ond ral",
      "Ġinte rest",
      "Ġha em",
      "rach noid",
      "Ġtrache al",
      "aryn x",
      "Ġconta ining",
      "ost al",
      "Ġsym metric",
      "Ġheal ing",
      "Ġrecur rence",
      "opa que",
      "Ġaceta bular",
      "Ġsuper fic",
      "Ġdiver ticul",
      "Ġtraum a",
      "Ġga uc",
      "Ġdraw n",
      "Ġsmo oth",
      "Ġartif act",
      "c o",
      "c p",
      "c ular",
      "g et",
      "l ed",
      "r ing",
      "Ġt ro",
      "he rence",
      "Ġs yst",
      "Ġs itu",
      "Ġo d",
      "Ġp yel",
      "Ġm ening",
      "Ġin di",
      "Ġan ast",
      "Ġd yn",
      "or d",
      "Ġf al",
      "Ġf lex",
      "Ġb right",
      "ph aryngeal",
      "Ġre ma",
      "ter m",
      "Ġi ps",
      "Ġn umb",
      "Ġdi mension",
      "oc yst",
      "Ġ2 8",
      "so as",
      "Ġad m",
      "ardi um",
      "Ġpla cent",
      "Ġac cess",
      "Ġac tiv",
      "Ġlarge st",
      "pos ition",
      "Ġce ment",
      "ach ment",
      "Ġmal formation",
      "Ġgra n",
      "irc um",
      "Ġpneum on",
      "Ġbl ock",
      "Ġins ide",
      "Ġout flow",
      "Ġseve ral",
      "Ġinte stinal",
      "Ġbronch ie",
      "Ġorigin ating",
      "Ġrib s",
      "Ġscle rosis",
      "Ġinfar ct",
      "Ġele ct",
      "Ġrecur rent",
      "vis ion",
      "Ġped icle",
      "atu rated",
      "Ġcour se",
      "Ġanat om",
      "omed iast",
      "Ġlea fle",
      "Ġocclu ded",
      "Ġpatch y",
      "Ġfail ure",
      "Ġsuccess ful",
      "Ġcharac teris",
      "Ġmaj or",
      "Ġdeform ity",
      "axi al",
      "Ġintussusce ption",
      "Ġcompati ble",
      "luc ose",
      "Ġsuperfic ial",
      "b s",
      "l ob",
      "m ar",
      "m otherapy",
      "o ce",
      "p ed",
      "s a",
      "s ure",
      "Ġ Ã©",
      "Ġa ut",
      "Ġt dm",
      "in te",
      "Ġc lavic",
      "re ad",
      "Ġp ig",
      "Ġin de",
      "Ġan k",
      "Ġan n",
      "Ġb en",
      "Ġb ub",
      "ic i",
      "Ġe ach",
      "ol iosis",
      "Ġcomp ared",
      "Ġcomp artment",
      "ac ted",
      "th y",
      "oc arcinoma",
      "Ġcor tic",
      "Ġradiograph ie",
      "ir l",
      "Ġ2 6",
      "Ġabdom in",
      "Ġst age",
      "Ġst and",
      "Ġres pective",
      "Ġ3 7",
      "Ġsub traction",
      "Ġanterior ly",
      "Ġanterior posterior",
      "Ġbe en",
      "Ġtrans plan",
      "Ġper cutaneous",
      "Ġ4 8",
      "Ġco herence",
      "Ġend o",
      "Ġmo dified",
      "reat ography",
      "ini stration",
      "Ġfluo res",
      "Ġmeasurement s",
      "Ġprost ate",
      "Ġtri ang",
      "Ġinflamm atory",
      "Ġradiolog ical",
      "sh aped",
      "Ġcall osum",
      "Ġdys pl",
      "Ġhu ge",
      "Ġclin ical",
      "comp uted",
      "Ġrepa ir",
      "Ġterm inal",
      "Ġdela yed",
      "Ġwellc ircum",
      "Ġmix ed",
      "Ġpregn ancy",
      "Ġanast om",
      "Ġdyn amic",
      "Ġadm inistration",
      "Ġwellcircum scribed",
      "1 5",
      "m i",
      "r up",
      "v a",
      "Ġ Ã",
      "in ate",
      "on to",
      "Ġs id",
      "Ġs tern",
      "Ġc ent",
      "Ġp ub",
      "Ġw hen",
      "Ġd own",
      "Ġb uc",
      "is ed",
      "ph ic",
      "ol d",
      "Ġto p",
      "rom a",
      "op anc",
      "ys te",
      "Ġ2 3",
      "cho genic",
      "Ġmed ian",
      "Ġcol lapse",
      "Ġinter c",
      "Ġac rom",
      "qu es",
      "Ġdu ral",
      "Ġmet al",
      "je cted",
      "Ġthro ug",
      "Ġabs ent",
      "Ġoste otomy",
      "Ġcomple x",
      "Ġhetero genous",
      "Ġcl ose",
      "Ġfill ed",
      "Ġfist ul",
      "Ġrepresent ing",
      "Ġhyd r",
      "Ġson ogram",
      "Ġconta ct",
      "Ġgl ass",
      "Ġscle rotic",
      "Ġinvas ive",
      "Ġcholangi opanc",
      "Ġground glass",
      "Ġinclu ding",
      "Ġdevelop ed",
      "Ġge station",
      "Ġtuberc ul",
      "Ġmultiloc ular",
      "Ġchan ge",
      "Ġlympho ma",
      "Ġdas hed",
      "Ġgauc he",
      "Ġod onto",
      "Ġthroug hout",
      "o venous",
      "s ile",
      "w ar",
      "Ġ es",
      "Ġt reated",
      "te al",
      "Ġo ral",
      "en hancing",
      "ri d",
      "Ġm or",
      "Ġm iss",
      "Ġin ner",
      "Ġan al",
      "ar th",
      "an al",
      "Ġf asc",
      "er us",
      "es is",
      "Ġv ag",
      "ct or",
      "Ġde gene",
      "Ġde term",
      "Ġh il",
      "Ġth alam",
      "Ġcon ventional",
      "Ġsc ale",
      "Ġg row",
      "Ġhe pat",
      "ac ial",
      "oc c",
      "Ġas ym",
      "Ġsp ont",
      "Ġche motherapy",
      "Ġpo in",
      "ros copic",
      "Ġ3 2",
      "Ġpre m",
      "if orm",
      "Ġbe ing",
      "Ġtrans vaginal",
      "Ġop tical",
      "Ġposterior ly",
      "pos ed",
      "Ġinv ad",
      "Ġhead s",
      "Ġhyper tro",
      "Ġhyper intensity",
      "Ġocc ipital",
      "umb il",
      "Ġduct al",
      "Ġden se",
      "Ġpneum omediast",
      "tis s",
      "Ġep itheli",
      "Ġrect al",
      "Ġrepresent ative",
      "Ġparench ymal",
      "Ġappro ach",
      "Ġprost hesis",
      "Ġwid th",
      "Ġsti r",
      "Ġarth ro",
      "Ġaddi tional",
      "Ġless er",
      "Ġoccup ying",
      "Ġimpro vement",
      "Ġcaps ule",
      "Ġhum erus",
      "cran ial",
      "pen dicular",
      "Ġpredom inant",
      "Ġdistrib ution",
      "Ġstran ding",
      "Ġrespective ly",
      "a ortic",
      "c i",
      "e jun",
      "g ing",
      "l ing",
      "n s",
      "p inal",
      "s or",
      "u x",
      "v c",
      "Ġa te",
      "Ġs te",
      "Ġl ac",
      "Ġm yel",
      "Ġm enis",
      "Ġan te",
      "ho mo",
      "or ding",
      "Ġf used",
      "gra tion",
      "Ġn ail",
      "Ġv a",
      "Ġle g",
      "di es",
      "di bular",
      "di mension",
      "ol umbar",
      "at a",
      "Ġse m",
      "Ġsc oliosis",
      "Ġdi ast",
      "Ġg irl",
      "Ġradi opaque",
      "il ocular",
      "oc ardial",
      "ver n",
      "Ġcontra lateral",
      "Ġwh ile",
      "Ġ3 6",
      "Ġj ejun",
      "Ġli ke",
      "Ġper s",
      "Ġinc id",
      "Ġhem isp",
      "Ġ5 5",
      "Ġver y",
      "Ġun ilocular",
      "ll ar",
      "Ġus ep",
      "Ġindic ate",
      "ang i",
      "ual ly",
      "Ġduct s",
      "Ġechocardi ographic",
      "Ġapp a",
      "Ġ7 0",
      "Ġ7 5",
      "Ġcl os",
      "Ġunder lying",
      "Ġmarked ly",
      "Ġimplan tation",
      "las tic",
      "Ġfluoros copy",
      "hen oid",
      "Ġduoden al",
      "Ġprot on",
      "Ġaden ocarcinoma",
      "Ġcircum feren",
      "Ġexpan sile",
      "Ġprevious ly",
      "Ġdisten ded",
      "Ġincis or",
      "Ġbrach ial",
      "Ġaddi tion",
      "Ġslight ly",
      "Ġcrosssection al",
      "Ġposs ible",
      "Ġchoroid al",
      "aps ular",
      "eli ac",
      "Ġpneumon ia",
      "Ġclavic le",
      "Ġinde x",
      "ĠÃ ł",
      "Ġsid es",
      "Ġhydr onephrosis",
      "Ġcholangiopanc reatography",
      "war ds",
      "Ġpneumomediast inum",
      "Ġusep ack",
      "a in",
      "h ind",
      "m ic",
      "o v",
      "p ro",
      "r d",
      "s ide",
      "t le",
      "u ff",
      "Ġt en",
      "Ġs al",
      "Ġc eliac",
      "Ġl c",
      "Ġm ural",
      "Ġw or",
      "Ġan t",
      "Ġd id",
      "or t",
      "or tical",
      "it h",
      "Ġb ic",
      "om as",
      "as ed",
      "ul es",
      "ent ation",
      "Ġe th",
      "Ġe qu",
      "ion al",
      "Ġde com",
      "Ġde viation",
      "Ġh Ã©",
      "Ġcon t",
      "se t",
      "Ġen dom",
      "Ġsp henoid",
      "ta ble",
      "od e",
      "Ġres or",
      "all ow",
      "ot her",
      "Ġ3 4",
      "Ġal most",
      "Ġsub m",
      "Ġsub dural",
      "Ġob stru",
      "Ġob vious",
      "Ġbe hind",
      "Ġinter val",
      "Ġme chan",
      "Ġper mission",
      "Ġper pendicular",
      "Ġ4 5",
      "Ġexten ded",
      "ren ic",
      "Ġve get",
      "Ġro is",
      "Ġco uld",
      "Ġinfe ction",
      "Ġem p",
      "Ġlong axis",
      "Ġsoft tiss",
      "Ġimp acted",
      "Ġval ue",
      "Ġarteri ovenous",
      "her y",
      "Ġposition ed",
      "lic ation",
      "Ġz ones",
      "Ġsac ro",
      "Ġheterogeneous ly",
      "Ġsurround ed",
      "Ġperip hery",
      "Ġcur v",
      "Ġconfir ms",
      "Ġpseud ocyst",
      "rat or",
      "Ġpartial ly",
      "pi ration",
      "wa re",
      "pt om",
      "Ġechogenic ity",
      "Ġpostero lateral",
      "yg lucose",
      "Ġexpan sion",
      "cephal us",
      "Ġgi ant",
      "ox yglucose",
      "Ġect opic",
      "Ġmas se",
      "Ġhyperden se",
      "Ġdeg ree",
      "Ġsco re",
      "Ġoss ification",
      "Ġscap ula",
      "Ġfeature s",
      "Ġnumb er",
      "Ġbronchie ctasis",
      "Ġcharacteris tic",
      "Ġbuc cal",
      "Ġinterc ostal",
      "Ġspont aneous",
      "Ġate le",
      "dimension al",
      "Ġsofttiss ue",
      "b ow",
      "c ri",
      "g ulari",
      "m ity",
      "o tic",
      "s tem",
      "t Ã©",
      "x t",
      "x us",
      "Ġs ul",
      "Ġs ided",
      "Ġs pec",
      "Ġc is",
      "Ġc sf",
      "Ġc rown",
      "Ġo ed",
      "re t",
      "re ed",
      "ti m",
      "Ġp t",
      "Ġp op",
      "Ġp soas",
      "Ġl umb",
      "Ġm ac",
      "Ġin st",
      "Ġw a",
      "Ġw ide",
      "ic ation",
      "Ġar c",
      "Ġre lated",
      "um p",
      "at ten",
      "Ġde fin",
      "Ġleft sided",
      "ur cation",
      "Ġse c",
      "Ġpa ram",
      "Ġg ang",
      "Ġg ross",
      "Ġg len",
      "Ġis che",
      "se p",
      "Ġen ema",
      "ran ge",
      "Ġdemonstra te",
      "Ġca p",
      "all ed",
      "ope ri",
      "ros copy",
      "Ġad v",
      "Ġmed ia",
      "Ġob tu",
      "Ġcol um",
      "Ġinter mediate",
      "ym pan",
      "Ġangi ographic",
      "ence phal",
      "Ġop ll",
      "Ġli p",
      "Ġper ine",
      "Ġ4 4",
      "Ġpres sure",
      "Ġbo und",
      "Ġbo dies",
      "Ġcalc ulus",
      "Ġcons ide",
      "im ension",
      "Ġair fluid",
      "Ġple u",
      "Ġple xus",
      "Ġmr cp",
      "Ġu ro",
      "Ġir m",
      "Ġori ginal",
      "Ġdep th",
      "Ġdep lo",
      "Ġirre gulari",
      "rat ory",
      "Ġasteris ks",
      "Ġsk in",
      "fle x",
      "Ġborder s",
      "Ġnec rotic",
      "man dibular",
      "Ġcontinu ous",
      "Ġprogres sion",
      "Ġext re",
      "olog y",
      "Ġmalign ant",
      "Ġcommunic ation",
      "Ġepid ural",
      "rode oxyglucose",
      "Ġphot ograph",
      "Ġtechn ique",
      "Ġconfirm ing",
      "Ġpun cture",
      "Ġdro ite",
      "Ġben ign",
      "Ġprem olar",
      "umbil ical",
      "Ġappa rent",
      "imension al",
      "a rachnoid",
      "b ody",
      "d ct",
      "e st",
      "f er",
      "f act",
      "i ted",
      "i el",
      "i tive",
      "o k",
      "y pho",
      "Ġ esophageal",
      "in ct",
      "ra di",
      "Ġs ke",
      "Ġs usp",
      "Ġthe n",
      "Ġm Ã©",
      "Ġw o",
      "Ġd ental",
      "ar m",
      "it Ã©",
      "Ġar ticular",
      "gra ph",
      "Ġre cess",
      "Ġi opa",
      "tic le",
      "Ġde b",
      "Ġde t",
      "Ġh al",
      "Ġh umeral",
      "Ġth reed",
      "Ġpa ral",
      "Ġpa rotid",
      "ac ral",
      "Ġscan ning",
      "ig nal",
      "ver sal",
      "Ġsp read",
      "ch a",
      "ch ondral",
      "Ġla te",
      "Ġca vern",
      "Ġst ones",
      "Ġdis con",
      "ot t",
      "ast oid",
      "Ġpe ct",
      "Ġsub mandibular",
      "Ġsub arachnoid",
      "Ġsub chondral",
      "Ġinter sti",
      "Ġlateral ly",
      "Ġop ening",
      "Ġintra cranial",
      "Ġreg urg",
      "Ġventric ul",
      "Ġro i",
      "Ġaor t",
      "Ġhem i",
      "Ġun ion",
      "Ġun enhanced",
      "Ġus g",
      "Ġce phal",
      "Ġcan ine",
      "Ġsep ta",
      "Ġoste op",
      "Ġte ar",
      "Ġcomplete ly",
      "Ġass ess",
      "Ġbron cho",
      "Ġfib rosis",
      "Ġultrason ographic",
      "Ġwee k",
      "Ġcur ve",
      "Ġdo es",
      "Ġdiagn os",
      "ulari s",
      "Ġmin or",
      "Ġsim ple",
      "Ġope rative",
      "Ġprot ru",
      "Ġgu ide",
      "Ġdifferen t",
      "Ġnucle us",
      "Ġpate lla",
      "ien ne",
      "bul um",
      "Ġillustra ting",
      "Ġoment um",
      "Ġhypoplas ia",
      "Ġset ting",
      "Ġbif urcation",
      "Ġsymmetric al",
      "Ġips ilateral",
      "Ġpredominant ly",
      "Ġcircumferen tial",
      "Ġusepack age",
      "Ġsubm uc",
      "Ġsacro ili",
      "Ġthreed imensional",
      "Ġintersti tial",
      "4 5",
      "d uc",
      "g ed",
      "i as",
      "k ely",
      "l vic",
      "m ural",
      "s d",
      "w ire",
      "y lo",
      "Ġ vel",
      "in f",
      "in atus",
      "Ġc rest",
      "Ġo ur",
      "Ġp ene",
      "ri a",
      "Ġm p",
      "Ġm ade",
      "Ġan other",
      "Ġd ome",
      "Ġf l",
      "us h",
      "Ġre pe",
      "Ġn ume",
      "Ġv i",
      "Ġv es",
      "Ġe c",
      "Ġe v",
      "tra che",
      "at osis",
      "un e",
      "Ġde line",
      "Ġab ut",
      "Ġab lation",
      "Ġhe re",
      "ac ar",
      "th alam",
      "Ġsu v",
      "se c",
      "rom ed",
      "op la",
      "Ġtomography computed",
      "Ġsp aces",
      "all ic",
      "ros pinal",
      "Ġma p",
      "gen ital",
      "Ġk ypho",
      "Ġinter pre",
      "Ġmulti plan",
      "Ġ4 6",
      "Ġexten t",
      "Ġcal ib",
      "Ġro tation",
      "Ġco re",
      "Ġfracture d",
      "Ġcalc an",
      "Ġmet allic",
      "Ġmeasure s",
      "Ġfe w",
      "Ġhigh ly",
      "Ġtra be",
      "med ullary",
      "Ġsup rac",
      "Ġcereb rospinal",
      "Ġcompres sed",
      "Ġdefect s",
      "Ġmes h",
      "Ġmes ial",
      "Ġpresent ing",
      "Ġinfiltra ting",
      "Ġfib ro",
      "Ġimplan ted",
      "Ġimplan ts",
      "tran s",
      "Ġoccl us",
      "rect al",
      "Ġmod el",
      "Ġcran ioc",
      "Ġdepic ts",
      "yl ar",
      "Ġshadow ing",
      "Ġag ain",
      "ost omy",
      "Ġgastro inte",
      "Ġav ul",
      "Ġsti ll",
      "Ġmuc osal",
      "month s",
      "cephal ic",
      "Ġdisten sion",
      "Ġgu id",
      "Ġacc ording",
      "Ġbrach io",
      "Ġhydro cephalus",
      "Ġel bow",
      "Ġtor tu",
      "Ġosteol ytic",
      "Ġrepla cement",
      "Ġdisappe arance",
      "Ġdire ction",
      "Ġoblite ration",
      "Ġanom al",
      "Ġflo or",
      "Ġgene ral",
      "Ġdiverticul um",
      "Ġplacent a",
      "Ġactiv ity",
      "Ġank le",
      "Ġtubercul osis",
      "Ġlc x",
      "Ġeth moid",
      "Ġendom et",
      "Ġresor ption",
      "Ġgang l",
      "Ġcolum n",
      "Ġregurg itation",
      "Ġnume rous",
      "trache al",
      "Ġgastrointe stinal",
      "1 3",
      "a ud",
      "c l",
      "c ence",
      "f ill",
      "g o",
      "l ess",
      "n ed",
      "o ve",
      "s agittal",
      "Ġt ong",
      "ra ting",
      "Ġs i",
      "Ġs n",
      "Ġs il",
      "Ġs am",
      "Ġs tem",
      "Ġc r",
      "Ġc li",
      "al ly",
      "Ġo ct",
      "Ġo range",
      "ti o",
      "Ġp l",
      "Ġp r",
      "Ġp in",
      "Ġp ow",
      "Ġl ack",
      "ri x",
      "ing s",
      "Ġin n",
      "Ġd r",
      "ar k",
      "an ds",
      "Ġf ul",
      "Ġf all",
      "Ġb ro",
      "Ġb ull",
      "ag es",
      "Ġde x",
      "Ġh i",
      "teri zation",
      "Ġcom b",
      "Ġcon genital",
      "Ġct a",
      "Ġdi rect",
      "Ġpa cem",
      "Ġg en",
      "Ġex h",
      "Ġex ce",
      "res s",
      "am s",
      "Ġaxial e",
      "Ġla pa",
      "Ġres pon",
      "Ġne ph",
      "ot s",
      "Ġal ign",
      "Ġpre treatment",
      "tes y",
      "Ġli kely",
      "Ġac com",
      "Ġme an",
      "po ral",
      "po int",
      "Ġ4 2",
      "Ġreg res",
      "Ġho urs",
      "Ġcalc ulated",
      "Ġhyper vascular",
      "Ġos ti",
      "Ġos seous",
      "ari etal",
      "Ġ6 0",
      "Ġ6 1",
      "Ġbrain stem",
      "omy el",
      "ak er",
      "Ġair way",
      "Ġappe ar",
      "inten sities",
      "Ġcar pal",
      "Ġpor t",
      "oden al",
      "Ġcereb ell",
      "Ġure teral",
      "tem poral",
      "Ġfron t",
      "Ġinten se",
      "Ġconf lu",
      "den sity",
      "Ġrecon structed",
      "Ġcardi omegaly",
      "Ġvol um",
      "Ġtr ue",
      "Ġbon es",
      "Ġdrain ing",
      "Ġlocal ized",
      "Ġfore arm",
      "Ġsim ilar",
      "Ġthorac olumbar",
      "Ġstra in",
      "Ġcour tesy",
      "Ġcollateral s",
      "Ġmalign ancy",
      "Ġfats up",
      "Ġfats aturated",
      "Ġspect ral",
      "Ġtro chan",
      "Ġsyst olic",
      "Ġleafle t",
      "oce le",
      "Ġbub ble",
      "Ġstand ard",
      "Ġdyspl asia",
      "Ġodonto id",
      "Ġanal ysis",
      "Ġhil um",
      "Ġmenis cus",
      "Ġincid ental",
      "Ġmechan ical",
      "Ġatele ctasis",
      "Ġcis tern",
      "operi toneum",
      "Ġdiagnos tic",
      "Ġpene tra",
      "romed ial",
      "opla sty",
      "Ġmultiplan ar",
      "1 1",
      "a w",
      "b o",
      "d o",
      "d uced",
      "e qu",
      "h u",
      "h aped",
      "m ia",
      "o red",
      "w alled",
      "x a",
      "z yg",
      "ra ry",
      "Ġs el",
      "Ġs vc",
      "Ġc ri",
      "re atic",
      "ti tis",
      "ro g",
      "Ġl and",
      "Ġl ying",
      "Ġm s",
      "Ġm ra",
      "Ġm ob",
      "Ġm dct",
      "Ġin homo",
      "Ġd ent",
      "Ġf ull",
      "Ġb ar",
      "Ġb ur",
      "ul i",
      "le ft",
      "Ġre al",
      "Ġre tained",
      "Ġre flu",
      "ag ing",
      "Ġv as",
      "Ġv aginal",
      "Ġe us",
      "la b",
      "id s",
      "ol ysis",
      "ce in",
      "pe t",
      "Ġto wards",
      "Ġcon tent",
      "Ġsc ro",
      "Ġra tio",
      "ure d",
      "ure ter",
      "Ġradi o",
      "res olution",
      "ch ial",
      "fe cted",
      "Ġ3 1",
      "Ġad he",
      "Ġsub ject",
      "li ed",
      "Ġcol our",
      "Ġk n",
      "Ġpla ce",
      "ple ural",
      "Ġper fusion",
      "Ġintra oral",
      "po id",
      "Ġwall s",
      "Ġperi od",
      "Ġr Ã©",
      "Ġho rn",
      "Ġco st",
      "Ġmet acar",
      "Ġhyper intensities",
      "Ġfi ve",
      "Ġsh aped",
      "Ġend pla",
      "Ġindic ative",
      "Ġhigh resolution",
      "Ġfat ty",
      "Ġsoft ware",
      "Ġarteri ography",
      "Ġoste o",
      "Ġoste os",
      "Ġeffusion s",
      "ab olic",
      "Ġcathe terization",
      "Ġdiff ic",
      "Ġpancre ati",
      "Ġpart s",
      "Ġfoc us",
      "loc k",
      "Ġabnormal ities",
      "Ġ9 0",
      "Ġcross ing",
      "Ġson ography",
      "Ġson ographic",
      "Ġwid ening",
      "pi ratory",
      "Ġureth ral",
      "Ġsym ptom",
      "Ġmy omet",
      "Ġmicro c",
      "Ġdiaphragm atic",
      "Ã¨ ne",
      "ock et",
      "Ġcaud ate",
      "Ġbul b",
      "Ġfiel ds",
      "Ġcircum flex",
      "Ġappen dic",
      "Ġbas ilar",
      "Ġprogres sive",
      "Ġanat omy",
      "omet ric",
      "Ġcommunic ating",
      "Ġsepa rate",
      "Ġpoly poid",
      "Ġpoor ly",
      "wee k",
      "Ġgran ul",
      "Ġabdomin ope",
      "Ġfluores cein",
      "Ġmiss ing",
      "Ġvag ina",
      "Ġpoin ting",
      "Ġarthro plasty",
      "Ġpers istent",
      "Ġoed ema",
      "Ġpleu ra",
      "iel d",
      "Ġsacroili ac",
      "Ġbrachio cephalic",
      "Ġtortu ous",
      "Ġanomal ous",
      "Ġtong ue",
      "Ġpacem aker",
      "Ġaccom pan",
      "Ġland mar",
      "Ġreflu x",
      "Ġpancreati tis",
      "a val",
      "c or",
      "d ge",
      "e ure",
      "f a",
      "g astric",
      "i fe",
      "s es",
      "s ignal",
      "u tes",
      "u ate",
      "y ment",
      "Ġ umbilical",
      "Ġt er",
      "in o",
      "ra ble",
      "Ġp d",
      "Ġp ons",
      "Ġl ing",
      "Ġl uc",
      "Ġl arg",
      "Ġl uminal",
      "Ġin jected",
      "Ġw ed",
      "Ġan echoic",
      "Ġd oc",
      "or b",
      "or tion",
      "it re",
      "Ġb m",
      "is ation",
      "is ition",
      "ph ys",
      "le l",
      "le tal",
      "le vel",
      "Ġre se",
      "Ġe cc",
      "at holog",
      "ce ration",
      "os acral",
      "Ġde m",
      "teri o",
      "Ġse ries",
      "Ġra n",
      "Ġpa ran",
      "th al",
      "Ġsu ture",
      "Ġcor rect",
      "op atholog",
      "Ġas piration",
      "ys cal",
      "Ġpo uch",
      "Ġpos itive",
      "Ġca st",
      "Ġres piratory",
      "Ġpost s",
      "Ġpost op",
      "Ġad equ",
      "li er",
      "ib ility",
      "Ġbe ca",
      "Ġpla tes",
      "ple te",
      "Ġper man",
      "Ġintra abdominal",
      "Ġintra medullary",
      "Ġexten sor",
      "Ġch ond",
      "Ã© e",
      "Ġmid esophageal",
      "Ġmid sagittal",
      "Ġventric les",
      "Ġho l",
      "Ġ5 6",
      "oph arynx",
      "Ġhyper met",
      "ari es",
      "Ġ6 5",
      "cardi a",
      "Ġsignal s",
      "Ġinvol ved",
      "Ġsubc apsular",
      "Ġsubc ortical",
      "Ġcerv ic",
      "Ġpat h",
      "Ġtwo dimensional",
      "Ġsup ine",
      "og astric",
      "Ġz yg",
      "Ġep i",
      "Ġep ic",
      "Ġcentral ly",
      "Ġdispla cing",
      "Ġthin ning",
      "Ġfix ed",
      "Ġremo ved",
      "Ġfil ter",
      "Ġsta ble",
      "Ġhist opatholog",
      "Ġround ed",
      "Ġheal thy",
      "Ġthorac ique",
      "Ġorthopantom ograph",
      "Ġbas ed",
      "Ġlim b",
      "Ġsugge st",
      "atu ration",
      "Ġpatholog y",
      "Ġstar ting",
      "Ġic a",
      "Ġlam ine",
      "Ġpate llar",
      "Ġiso lated",
      "Ġmamm ogram",
      "Ġrem od",
      "Ġmi gration",
      "Ġcb ct",
      "Ġach ie",
      "Ġacqu ired",
      "Ġphal an",
      "Ġsupp ly",
      "Ġelev ated",
      "Ġhaem atoma",
      "Ġfal se",
      "Ġanatom ical",
      "lob ular",
      "ici ous",
      "Ġanastom osis",
      "Ġdegene rative",
      "Ġgrow th",
      "Ġinvad ing",
      "Ġveget ation",
      "Ġpop lite",
      "ympan ic",
      "Ġdeplo yment",
      "Ġirregulari ty",
      "Ġpect oral",
      "Ġprotru ding",
      "Ġabut ting",
      "Ġkypho sis",
      "Ġocclus al",
      "fill ed",
      "Ġdex tro",
      "Ġalign ment",
      "Ġfatsup pressed",
      "Ġmetacar pal",
      "Ġecc entric",
      "Ġparan asal",
      "yscal e",
      "Ġbeca use",
      "Ġperman ent",
      "a ft",
      "c ar",
      "c um",
      "c ystic",
      "d es",
      "f ib",
      "i res",
      "m b",
      "m it",
      "n ant",
      "r usion",
      "t t",
      "u st",
      "v asculari",
      "w h",
      "x ation",
      "y t",
      "Ġ erc",
      "Ġt al",
      "on al",
      "Ġs yl",
      "Ġc n",
      "Ġp i",
      "ro gram",
      "Ġl m",
      "Ġl at",
      "ri e",
      "ri form",
      "Ġw ater",
      "Ġan eurys",
      "ho le",
      "Ġd ata",
      "st oma",
      "or ted",
      "it her",
      "Ġf acial",
      "is h",
      "ic ular",
      "as tic",
      "Ġre fer",
      "ve red",
      "Ġn erv",
      "Ġv ide",
      "id ia",
      "um ent",
      "Ġri s",
      "Ġh is",
      "Ġh ard",
      "Ġh yste",
      "ur ce",
      "Ġcon c",
      "ten sion",
      "Ġsc h",
      "Ġsc at",
      "ment al",
      "Ġhe r",
      "Ġis od",
      "il la",
      "Ġon set",
      "et te",
      "anc reatic",
      "ous tic",
      "Ġsp l",
      "Ġpro b",
      "Ġpro f",
      "Ġpro du",
      "ta xis",
      "Ġst atus",
      "Ġst ress",
      "ope ric",
      "Ġxra ys",
      "Ġad ult",
      "Ġsub ac",
      "Ġsub lu",
      "Ġinter vertebral",
      "Ġpla que",
      "Ġtrans versal",
      "Ġac oustic",
      "Ġintra peritoneal",
      "Ġintra mural",
      "Ġperi ventricular",
      "Ġ4 1",
      "Ġ4 7",
      "Ġinc om",
      "Ġhem idia",
      "Ġ5 3",
      "Ġ5 8",
      "oph renic",
      "Ġcav ities",
      "je cting",
      "je jun",
      "Ġ6 8",
      "Ġven ogram",
      "Ġfe eding",
      "Ġmo vement",
      "Ġden s",
      "Ġval sal",
      "asc ul",
      "Ġantero lateral",
      "Ġnon enhanced",
      "Ġnon enhancing",
      "vid ed",
      "Ġpara sp",
      "ab ly",
      "Ġori entation",
      "Ġtrac king",
      "Ġshor taxis",
      "Ġep ig",
      "Ġout l",
      "Ġout line",
      "Ġout let",
      "Ġout side",
      "Ġdispla ying",
      "Ġfib rous",
      "Ġinte st",
      "Ġbronch ial",
      "sp inatus",
      "Ġha ving",
      "Ġlen s",
      "Ġsw allow",
      "Ġprost hetic",
      "Ġmat rix",
      "Ġmy ocardial",
      "Ġmin utes",
      "physe al",
      "Ġbul let",
      "Ġcircum scribed",
      "Ġint ral",
      "Ġatt achment",
      "Ġuln a",
      "Ġacc um",
      "Ġhydro ureter",
      "Ġstra ight",
      "Ġaceta bulum",
      "Ġpatholog ical",
      "Ġtes tis",
      "Ã©ri eure",
      "Ġosteol ysis",
      "Ġresul ting",
      "Ġacqu isition",
      "Ġphal anges",
      "Ġstern oc",
      "Ġhypertro phy",
      "Ġclos ure",
      "Ġant rum",
      "Ġdecom pression",
      "Ġcurv ature",
      "Ġlumb osacral",
      "Ġglen oid",
      "Ġske letal",
      "Ġsusp icious",
      "Ġhal f",
      "Ġcavern ous",
      "aud al",
      "Ġpow er",
      "Ġexh ib",
      "Ġosti um",
      "zyg os",
      "Ġmob ile",
      "Ġabdominope lvic",
      "Ġzyg omatic",
      "Ġlamine ctomy",
      "Ġphalan x",
      "Ġpectoral is",
      "Ġerc p",
      "Ġaneurys mal",
      "Ġisod ose",
      "Ġhemidia ph",
      "a ff",
      "a tid",
      "a physeal",
      "b ron",
      "c s",
      "c les",
      "e x",
      "g ative",
      "i asis",
      "k es",
      "n d",
      "u ating",
      "v iew",
      "£ o",
      "¼ m",
      "Â µ",
      "Ã §",
      "Ã ´",
      "Ã £o",
[...]
